{
  "<pad>": 0,
  "<cls>": 1,
  "<mask>": 2,
  "control": 3,
  "G0": 4,
  "G1": 5,
  "G10": 6,
  "G100": 7,
  "G1000": 8,
  "G1001": 9,
  "G1002": 10,
  "G1003": 11,
  "G1004": 12,
  "G1006": 13,
  "G1008": 14,
  "G1009": 15,
  "G101": 16,
  "G1010": 17,
  "G1011": 18,
  "G1012": 19,
  "G1013": 20,
  "G1014": 21,
  "G1016": 22,
  "G1017": 23,
  "G1019": 24,
  "G102": 25,
  "G1020": 26,
  "G1021": 27,
  "G1022": 28,
  "G1025": 29,
  "G1026": 30,
  "G1027": 31,
  "G1028": 32,
  "G1029": 33,
  "G103": 34,
  "G1030": 35,
  "G1031": 36,
  "G1032": 37,
  "G1033": 38,
  "G1034": 39,
  "G1035": 40,
  "G1037": 41,
  "G1038": 42,
  "G1039": 43,
  "G104": 44,
  "G1040": 45,
  "G1041": 46,
  "G1042": 47,
  "G1043": 48,
  "G1044": 49,
  "G1046": 50,
  "G1047": 51,
  "G1048": 52,
  "G1049": 53,
  "G105": 54,
  "G1050": 55,
  "G1051": 56,
  "G1052": 57,
  "G1053": 58,
  "G1054": 59,
  "G1055": 60,
  "G1056": 61,
  "G1057": 62,
  "G1058": 63,
  "G1059": 64,
  "G106": 65,
  "G1060": 66,
  "G1061": 67,
  "G1062": 68,
  "G1063": 69,
  "G1064": 70,
  "G1065": 71,
  "G1066": 72,
  "G1067": 73,
  "G1068": 74,
  "G1069": 75,
  "G107": 76,
  "G1070": 77,
  "G1071": 78,
  "G1072": 79,
  "G1074": 80,
  "G1075": 81,
  "G1076": 82,
  "G1078": 83,
  "G1079": 84,
  "G108": 85,
  "G1080": 86,
  "G1081": 87,
  "G1083": 88,
  "G1084": 89,
  "G1085": 90,
  "G1086": 91,
  "G1087": 92,
  "G1088": 93,
  "G1089": 94,
  "G109": 95,
  "G1090": 96,
  "G1091": 97,
  "G1092": 98,
  "G1093": 99,
  "G1094": 100,
  "G1095": 101,
  "G1096": 102,
  "G1097": 103,
  "G1098": 104,
  "G1099": 105,
  "G11": 106,
  "G110": 107,
  "G1100": 108,
  "G1101": 109,
  "G1102": 110,
  "G1103": 111,
  "G1104": 112,
  "G1105": 113,
  "G1106": 114,
  "G1107": 115,
  "G1108": 116,
  "G1109": 117,
  "G111": 118,
  "G1110": 119,
  "G1111": 120,
  "G1112": 121,
  "G1113": 122,
  "G1114": 123,
  "G1115": 124,
  "G1116": 125,
  "G1117": 126,
  "G1118": 127,
  "G1119": 128,
  "G112": 129,
  "G1120": 130,
  "G1121": 131,
  "G1122": 132,
  "G1123": 133,
  "G1124": 134,
  "G1125": 135,
  "G1126": 136,
  "G1127": 137,
  "G1128": 138,
  "G1129": 139,
  "G113": 140,
  "G1130": 141,
  "G1131": 142,
  "G1132": 143,
  "G1133": 144,
  "G1134": 145,
  "G1135": 146,
  "G1136": 147,
  "G1137": 148,
  "G1138": 149,
  "G1139": 150,
  "G114": 151,
  "G1140": 152,
  "G1141": 153,
  "G1142": 154,
  "G1143": 155,
  "G1144": 156,
  "G1145": 157,
  "G1146": 158,
  "G1147": 159,
  "G1148": 160,
  "G1149": 161,
  "G115": 162,
  "G1150": 163,
  "G1151": 164,
  "G1152": 165,
  "G1153": 166,
  "G1154": 167,
  "G1155": 168,
  "G1156": 169,
  "G1157": 170,
  "G1158": 171,
  "G1159": 172,
  "G116": 173,
  "G1160": 174,
  "G1161": 175,
  "G1162": 176,
  "G1163": 177,
  "G1164": 178,
  "G1165": 179,
  "G1166": 180,
  "G1167": 181,
  "G1169": 182,
  "G117": 183,
  "G1171": 184,
  "G1172": 185,
  "G1173": 186,
  "G1175": 187,
  "G1176": 188,
  "G1177": 189,
  "G1178": 190,
  "G1179": 191,
  "G118": 192,
  "G1180": 193,
  "G1181": 194,
  "G1182": 195,
  "G1183": 196,
  "G1184": 197,
  "G1185": 198,
  "G1186": 199,
  "G1187": 200,
  "G1188": 201,
  "G1189": 202,
  "G119": 203,
  "G1190": 204,
  "G1191": 205,
  "G1192": 206,
  "G1193": 207,
  "G1194": 208,
  "G1195": 209,
  "G1196": 210,
  "G1197": 211,
  "G1198": 212,
  "G1199": 213,
  "G12": 214,
  "G120": 215,
  "G1200": 216,
  "G1201": 217,
  "G1202": 218,
  "G1203": 219,
  "G1204": 220,
  "G1205": 221,
  "G1206": 222,
  "G1207": 223,
  "G1208": 224,
  "G1209": 225,
  "G121": 226,
  "G1210": 227,
  "G1211": 228,
  "G1212": 229,
  "G1213": 230,
  "G1214": 231,
  "G1215": 232,
  "G1216": 233,
  "G1217": 234,
  "G1218": 235,
  "G1219": 236,
  "G122": 237,
  "G1220": 238,
  "G1221": 239,
  "G1222": 240,
  "G1223": 241,
  "G1224": 242,
  "G1225": 243,
  "G1226": 244,
  "G1227": 245,
  "G1228": 246,
  "G1229": 247,
  "G123": 248,
  "G1230": 249,
  "G1231": 250,
  "G1232": 251,
  "G1233": 252,
  "G1234": 253,
  "G1235": 254,
  "G1236": 255,
  "G1237": 256,
  "G1238": 257,
  "G1239": 258,
  "G124": 259,
  "G1240": 260,
  "G1241": 261,
  "G1242": 262,
  "G1244": 263,
  "G1246": 264,
  "G1247": 265,
  "G1248": 266,
  "G1249": 267,
  "G125": 268,
  "G1250": 269,
  "G1251": 270,
  "G1252": 271,
  "G1253": 272,
  "G1254": 273,
  "G1255": 274,
  "G1256": 275,
  "G1257": 276,
  "G1258": 277,
  "G1259": 278,
  "G126": 279,
  "G1260": 280,
  "G1261": 281,
  "G1262": 282,
  "G1263": 283,
  "G1264": 284,
  "G1265": 285,
  "G1266": 286,
  "G1267": 287,
  "G1268": 288,
  "G1269": 289,
  "G127": 290,
  "G1270": 291,
  "G1271": 292,
  "G1272": 293,
  "G1273": 294,
  "G1274": 295,
  "G1276": 296,
  "G1277": 297,
  "G1278": 298,
  "G1279": 299,
  "G128": 300,
  "G1280": 301,
  "G1281": 302,
  "G1282": 303,
  "G1283": 304,
  "G1284": 305,
  "G1285": 306,
  "G1286": 307,
  "G1287": 308,
  "G1288": 309,
  "G1289": 310,
  "G129": 311,
  "G1290": 312,
  "G1291": 313,
  "G1292": 314,
  "G1293": 315,
  "G1294": 316,
  "G1295": 317,
  "G1296": 318,
  "G1297": 319,
  "G1298": 320,
  "G1299": 321,
  "G13": 322,
  "G130": 323,
  "G1300": 324,
  "G1301": 325,
  "G1302": 326,
  "G1303": 327,
  "G1304": 328,
  "G1305": 329,
  "G1306": 330,
  "G1307": 331,
  "G1308": 332,
  "G1309": 333,
  "G131": 334,
  "G1310": 335,
  "G1311": 336,
  "G1312": 337,
  "G1313": 338,
  "G1314": 339,
  "G1315": 340,
  "G1316": 341,
  "G1317": 342,
  "G1318": 343,
  "G1319": 344,
  "G132": 345,
  "G1320": 346,
  "G1321": 347,
  "G1322": 348,
  "G1323": 349,
  "G1324": 350,
  "G1326": 351,
  "G1327": 352,
  "G1328": 353,
  "G1329": 354,
  "G133": 355,
  "G1330": 356,
  "G1331": 357,
  "G1332": 358,
  "G1333": 359,
  "G1334": 360,
  "G1335": 361,
  "G1336": 362,
  "G1337": 363,
  "G1338": 364,
  "G1339": 365,
  "G134": 366,
  "G1340": 367,
  "G1342": 368,
  "G1343": 369,
  "G1344": 370,
  "G1345": 371,
  "G1346": 372,
  "G1347": 373,
  "G1348": 374,
  "G1349": 375,
  "G135": 376,
  "G1350": 377,
  "G1351": 378,
  "G1352": 379,
  "G1353": 380,
  "G1354": 381,
  "G1355": 382,
  "G1356": 383,
  "G1357": 384,
  "G1358": 385,
  "G1359": 386,
  "G136": 387,
  "G1360": 388,
  "G1361": 389,
  "G1362": 390,
  "G1363": 391,
  "G1364": 392,
  "G1365": 393,
  "G1366": 394,
  "G1367": 395,
  "G1368": 396,
  "G1369": 397,
  "G137": 398,
  "G1370": 399,
  "G1371": 400,
  "G1372": 401,
  "G1373": 402,
  "G1374": 403,
  "G1375": 404,
  "G1376": 405,
  "G1377": 406,
  "G1378": 407,
  "G1379": 408,
  "G138": 409,
  "G1380": 410,
  "G1381": 411,
  "G1382": 412,
  "G1383": 413,
  "G1384": 414,
  "G1385": 415,
  "G1386": 416,
  "G1387": 417,
  "G1388": 418,
  "G1389": 419,
  "G139": 420,
  "G1390": 421,
  "G1391": 422,
  "G1394": 423,
  "G1395": 424,
  "G1396": 425,
  "G1397": 426,
  "G1398": 427,
  "G1399": 428,
  "G14": 429,
  "G140": 430,
  "G1400": 431,
  "G1401": 432,
  "G1402": 433,
  "G1403": 434,
  "G1404": 435,
  "G1405": 436,
  "G1406": 437,
  "G1407": 438,
  "G1408": 439,
  "G1409": 440,
  "G141": 441,
  "G1410": 442,
  "G1411": 443,
  "G1412": 444,
  "G1413": 445,
  "G1415": 446,
  "G1416": 447,
  "G1417": 448,
  "G1418": 449,
  "G1419": 450,
  "G142": 451,
  "G1420": 452,
  "G1421": 453,
  "G1422": 454,
  "G1423": 455,
  "G1424": 456,
  "G1425": 457,
  "G1426": 458,
  "G1427": 459,
  "G1428": 460,
  "G1429": 461,
  "G143": 462,
  "G1430": 463,
  "G1431": 464,
  "G1432": 465,
  "G1433": 466,
  "G1434": 467,
  "G1435": 468,
  "G1436": 469,
  "G1437": 470,
  "G1438": 471,
  "G1439": 472,
  "G144": 473,
  "G1440": 474,
  "G1441": 475,
  "G1442": 476,
  "G1443": 477,
  "G1444": 478,
  "G1445": 479,
  "G1446": 480,
  "G1447": 481,
  "G1448": 482,
  "G1449": 483,
  "G145": 484,
  "G1450": 485,
  "G1451": 486,
  "G1452": 487,
  "G1453": 488,
  "G1454": 489,
  "G1455": 490,
  "G1456": 491,
  "G1457": 492,
  "G1458": 493,
  "G1459": 494,
  "G146": 495,
  "G1460": 496,
  "G1461": 497,
  "G1462": 498,
  "G1463": 499,
  "G1464": 500,
  "G1465": 501,
  "G1466": 502,
  "G1467": 503,
  "G1468": 504,
  "G1469": 505,
  "G147": 506,
  "G1470": 507,
  "G1471": 508,
  "G1472": 509,
  "G1473": 510,
  "G1474": 511,
  "G1475": 512,
  "G1476": 513,
  "G1477": 514,
  "G1478": 515,
  "G1479": 516,
  "G148": 517,
  "G1480": 518,
  "G1481": 519,
  "G1482": 520,
  "G1483": 521,
  "G1484": 522,
  "G1485": 523,
  "G1486": 524,
  "G1488": 525,
  "G1489": 526,
  "G149": 527,
  "G1490": 528,
  "G1491": 529,
  "G1493": 530,
  "G1494": 531,
  "G1495": 532,
  "G1496": 533,
  "G1497": 534,
  "G1498": 535,
  "G1499": 536,
  "G15": 537,
  "G150": 538,
  "G1500": 539,
  "G1501": 540,
  "G1502": 541,
  "G1503": 542,
  "G1504": 543,
  "G1505": 544,
  "G1506": 545,
  "G1507": 546,
  "G1508": 547,
  "G1509": 548,
  "G151": 549,
  "G1510": 550,
  "G1511": 551,
  "G1512": 552,
  "G1513": 553,
  "G1514": 554,
  "G1515": 555,
  "G1516": 556,
  "G1517": 557,
  "G1518": 558,
  "G1519": 559,
  "G152": 560,
  "G1521": 561,
  "G1522": 562,
  "G1523": 563,
  "G1524": 564,
  "G1525": 565,
  "G1526": 566,
  "G1527": 567,
  "G1528": 568,
  "G1529": 569,
  "G153": 570,
  "G1531": 571,
  "G1532": 572,
  "G1533": 573,
  "G1534": 574,
  "G1535": 575,
  "G1536": 576,
  "G1537": 577,
  "G1538": 578,
  "G1539": 579,
  "G154": 580,
  "G1540": 581,
  "G1541": 582,
  "G1542": 583,
  "G1543": 584,
  "G1544": 585,
  "G1546": 586,
  "G1547": 587,
  "G1548": 588,
  "G1549": 589,
  "G155": 590,
  "G1550": 591,
  "G1551": 592,
  "G1552": 593,
  "G1553": 594,
  "G1554": 595,
  "G1555": 596,
  "G1556": 597,
  "G1557": 598,
  "G1558": 599,
  "G1559": 600,
  "G156": 601,
  "G1560": 602,
  "G1561": 603,
  "G1562": 604,
  "G1563": 605,
  "G1564": 606,
  "G1565": 607,
  "G1566": 608,
  "G1567": 609,
  "G1568": 610,
  "G1569": 611,
  "G157": 612,
  "G1570": 613,
  "G1571": 614,
  "G1572": 615,
  "G1573": 616,
  "G1574": 617,
  "G1575": 618,
  "G1576": 619,
  "G1577": 620,
  "G1578": 621,
  "G1579": 622,
  "G158": 623,
  "G1580": 624,
  "G1581": 625,
  "G1582": 626,
  "G1583": 627,
  "G1584": 628,
  "G1585": 629,
  "G1586": 630,
  "G1588": 631,
  "G1589": 632,
  "G159": 633,
  "G1590": 634,
  "G1591": 635,
  "G1592": 636,
  "G1593": 637,
  "G1594": 638,
  "G1595": 639,
  "G1597": 640,
  "G1598": 641,
  "G1599": 642,
  "G16": 643,
  "G160": 644,
  "G1600": 645,
  "G1601": 646,
  "G1602": 647,
  "G1603": 648,
  "G1604": 649,
  "G1605": 650,
  "G1606": 651,
  "G1607": 652,
  "G1608": 653,
  "G1609": 654,
  "G161": 655,
  "G1610": 656,
  "G1611": 657,
  "G1612": 658,
  "G1613": 659,
  "G1614": 660,
  "G1615": 661,
  "G1616": 662,
  "G1617": 663,
  "G1618": 664,
  "G1619": 665,
  "G162": 666,
  "G1620": 667,
  "G1621": 668,
  "G1622": 669,
  "G1623": 670,
  "G1624": 671,
  "G1625": 672,
  "G1626": 673,
  "G1627": 674,
  "G1628": 675,
  "G1629": 676,
  "G163": 677,
  "G1630": 678,
  "G1631": 679,
  "G1632": 680,
  "G1633": 681,
  "G1634": 682,
  "G1635": 683,
  "G1636": 684,
  "G1637": 685,
  "G1638": 686,
  "G1639": 687,
  "G164": 688,
  "G1640": 689,
  "G1641": 690,
  "G1642": 691,
  "G1643": 692,
  "G1644": 693,
  "G1645": 694,
  "G1646": 695,
  "G1647": 696,
  "G1648": 697,
  "G1649": 698,
  "G165": 699,
  "G1650": 700,
  "G1651": 701,
  "G1652": 702,
  "G1653": 703,
  "G1654": 704,
  "G1655": 705,
  "G1656": 706,
  "G1657": 707,
  "G1658": 708,
  "G1659": 709,
  "G166": 710,
  "G1660": 711,
  "G1661": 712,
  "G1662": 713,
  "G1663": 714,
  "G1664": 715,
  "G1665": 716,
  "G1666": 717,
  "G1667": 718,
  "G1668": 719,
  "G1669": 720,
  "G167": 721,
  "G1670": 722,
  "G1671": 723,
  "G1672": 724,
  "G1673": 725,
  "G1674": 726,
  "G1675": 727,
  "G1676": 728,
  "G1677": 729,
  "G1678": 730,
  "G1679": 731,
  "G168": 732,
  "G1680": 733,
  "G1681": 734,
  "G1682": 735,
  "G1683": 736,
  "G1684": 737,
  "G1685": 738,
  "G1686": 739,
  "G1687": 740,
  "G1688": 741,
  "G1689": 742,
  "G169": 743,
  "G1690": 744,
  "G1691": 745,
  "G1692": 746,
  "G1693": 747,
  "G1694": 748,
  "G1695": 749,
  "G1696": 750,
  "G1697": 751,
  "G1698": 752,
  "G1699": 753,
  "G17": 754,
  "G170": 755,
  "G1701": 756,
  "G1702": 757,
  "G1703": 758,
  "G1704": 759,
  "G1705": 760,
  "G1706": 761,
  "G1707": 762,
  "G1708": 763,
  "G1709": 764,
  "G171": 765,
  "G1710": 766,
  "G1711": 767,
  "G1712": 768,
  "G1713": 769,
  "G1714": 770,
  "G1715": 771,
  "G1716": 772,
  "G1717": 773,
  "G1718": 774,
  "G1719": 775,
  "G172": 776,
  "G1720": 777,
  "G1721": 778,
  "G1722": 779,
  "G1723": 780,
  "G1725": 781,
  "G1726": 782,
  "G1727": 783,
  "G1728": 784,
  "G1729": 785,
  "G173": 786,
  "G1730": 787,
  "G1731": 788,
  "G1732": 789,
  "G1733": 790,
  "G1734": 791,
  "G1735": 792,
  "G1737": 793,
  "G1738": 794,
  "G1739": 795,
  "G174": 796,
  "G1740": 797,
  "G1741": 798,
  "G1742": 799,
  "G1743": 800,
  "G1744": 801,
  "G1745": 802,
  "G1746": 803,
  "G1747": 804,
  "G1748": 805,
  "G1749": 806,
  "G175": 807,
  "G1750": 808,
  "G1751": 809,
  "G1752": 810,
  "G1753": 811,
  "G1754": 812,
  "G1755": 813,
  "G1756": 814,
  "G1757": 815,
  "G1758": 816,
  "G1759": 817,
  "G176": 818,
  "G1760": 819,
  "G1762": 820,
  "G1763": 821,
  "G1764": 822,
  "G1765": 823,
  "G1766": 824,
  "G1767": 825,
  "G1768": 826,
  "G1769": 827,
  "G177": 828,
  "G1770": 829,
  "G1771": 830,
  "G1772": 831,
  "G1773": 832,
  "G1774": 833,
  "G1775": 834,
  "G1776": 835,
  "G1777": 836,
  "G1778": 837,
  "G1779": 838,
  "G178": 839,
  "G1780": 840,
  "G1781": 841,
  "G1782": 842,
  "G1784": 843,
  "G1785": 844,
  "G1786": 845,
  "G1787": 846,
  "G1788": 847,
  "G1789": 848,
  "G179": 849,
  "G1790": 850,
  "G1791": 851,
  "G1792": 852,
  "G1793": 853,
  "G1795": 854,
  "G1796": 855,
  "G1797": 856,
  "G1798": 857,
  "G1799": 858,
  "G18": 859,
  "G180": 860,
  "G1800": 861,
  "G1801": 862,
  "G1802": 863,
  "G1803": 864,
  "G1804": 865,
  "G1805": 866,
  "G1806": 867,
  "G1807": 868,
  "G1808": 869,
  "G1809": 870,
  "G181": 871,
  "G1810": 872,
  "G1811": 873,
  "G1812": 874,
  "G1813": 875,
  "G1814": 876,
  "G1815": 877,
  "G1816": 878,
  "G1817": 879,
  "G1818": 880,
  "G1819": 881,
  "G182": 882,
  "G1820": 883,
  "G1821": 884,
  "G1822": 885,
  "G1823": 886,
  "G1824": 887,
  "G1825": 888,
  "G1826": 889,
  "G1827": 890,
  "G1828": 891,
  "G1829": 892,
  "G183": 893,
  "G1830": 894,
  "G1831": 895,
  "G1832": 896,
  "G1833": 897,
  "G1834": 898,
  "G1835": 899,
  "G1836": 900,
  "G1837": 901,
  "G1838": 902,
  "G1839": 903,
  "G184": 904,
  "G1840": 905,
  "G1841": 906,
  "G1842": 907,
  "G1843": 908,
  "G1844": 909,
  "G1845": 910,
  "G1846": 911,
  "G1847": 912,
  "G1848": 913,
  "G1849": 914,
  "G185": 915,
  "G1850": 916,
  "G1851": 917,
  "G1852": 918,
  "G1853": 919,
  "G1854": 920,
  "G1855": 921,
  "G1856": 922,
  "G1857": 923,
  "G1858": 924,
  "G1859": 925,
  "G186": 926,
  "G1860": 927,
  "G1861": 928,
  "G1862": 929,
  "G1863": 930,
  "G1864": 931,
  "G1865": 932,
  "G1866": 933,
  "G1867": 934,
  "G1868": 935,
  "G1869": 936,
  "G187": 937,
  "G1870": 938,
  "G1871": 939,
  "G1872": 940,
  "G1873": 941,
  "G1874": 942,
  "G1875": 943,
  "G1876": 944,
  "G1877": 945,
  "G1878": 946,
  "G1879": 947,
  "G188": 948,
  "G1880": 949,
  "G1881": 950,
  "G1882": 951,
  "G1883": 952,
  "G1884": 953,
  "G1885": 954,
  "G1886": 955,
  "G1887": 956,
  "G1888": 957,
  "G1889": 958,
  "G189": 959,
  "G1890": 960,
  "G1891": 961,
  "G1892": 962,
  "G1893": 963,
  "G1894": 964,
  "G1895": 965,
  "G1896": 966,
  "G1897": 967,
  "G1898": 968,
  "G1899": 969,
  "G19": 970,
  "G190": 971,
  "G1900": 972,
  "G1901": 973,
  "G1902": 974,
  "G1903": 975,
  "G1904": 976,
  "G1905": 977,
  "G1906": 978,
  "G1907": 979,
  "G1908": 980,
  "G1909": 981,
  "G191": 982,
  "G1910": 983,
  "G1911": 984,
  "G1912": 985,
  "G1913": 986,
  "G1914": 987,
  "G1916": 988,
  "G1917": 989,
  "G1918": 990,
  "G1919": 991,
  "G192": 992,
  "G1920": 993,
  "G1921": 994,
  "G1922": 995,
  "G1923": 996,
  "G1924": 997,
  "G1925": 998,
  "G1926": 999,
  "G1927": 1000,
  "G1928": 1001,
  "G1929": 1002,
  "G193": 1003,
  "G1930": 1004,
  "G1931": 1005,
  "G1932": 1006,
  "G1933": 1007,
  "G1934": 1008,
  "G1935": 1009,
  "G1936": 1010,
  "G1937": 1011,
  "G1938": 1012,
  "G1939": 1013,
  "G194": 1014,
  "G1940": 1015,
  "G1941": 1016,
  "G1942": 1017,
  "G1943": 1018,
  "G1944": 1019,
  "G1945": 1020,
  "G1946": 1021,
  "G1947": 1022,
  "G1948": 1023,
  "G1949": 1024,
  "G195": 1025,
  "G1950": 1026,
  "G1951": 1027,
  "G1952": 1028,
  "G1953": 1029,
  "G1954": 1030,
  "G1955": 1031,
  "G1956": 1032,
  "G1958": 1033,
  "G1959": 1034,
  "G196": 1035,
  "G1960": 1036,
  "G1961": 1037,
  "G1962": 1038,
  "G1963": 1039,
  "G1964": 1040,
  "G1965": 1041,
  "G1966": 1042,
  "G1967": 1043,
  "G1968": 1044,
  "G1969": 1045,
  "G197": 1046,
  "G1970": 1047,
  "G1971": 1048,
  "G1972": 1049,
  "G1973": 1050,
  "G1974": 1051,
  "G1975": 1052,
  "G1976": 1053,
  "G1977": 1054,
  "G1978": 1055,
  "G1979": 1056,
  "G198": 1057,
  "G1980": 1058,
  "G1981": 1059,
  "G1982": 1060,
  "G1983": 1061,
  "G1984": 1062,
  "G1985": 1063,
  "G1986": 1064,
  "G1987": 1065,
  "G1988": 1066,
  "G1989": 1067,
  "G199": 1068,
  "G1990": 1069,
  "G1991": 1070,
  "G1992": 1071,
  "G1993": 1072,
  "G1994": 1073,
  "G1995": 1074,
  "G1997": 1075,
  "G1998": 1076,
  "G1999": 1077,
  "G2": 1078,
  "G20": 1079,
  "G200": 1080,
  "G2000": 1081,
  "G2001": 1082,
  "G2002": 1083,
  "G2003": 1084,
  "G2004": 1085,
  "G2005": 1086,
  "G2006": 1087,
  "G2007": 1088,
  "G2008": 1089,
  "G2009": 1090,
  "G2010": 1091,
  "G2011": 1092,
  "G2012": 1093,
  "G2013": 1094,
  "G2014": 1095,
  "G2015": 1096,
  "G2016": 1097,
  "G2017": 1098,
  "G2018": 1099,
  "G2019": 1100,
  "G202": 1101,
  "G2020": 1102,
  "G2022": 1103,
  "G2023": 1104,
  "G2024": 1105,
  "G2025": 1106,
  "G2026": 1107,
  "G2027": 1108,
  "G2028": 1109,
  "G2029": 1110,
  "G203": 1111,
  "G2030": 1112,
  "G2031": 1113,
  "G2032": 1114,
  "G2033": 1115,
  "G2034": 1116,
  "G2036": 1117,
  "G2037": 1118,
  "G2038": 1119,
  "G2039": 1120,
  "G204": 1121,
  "G2040": 1122,
  "G2041": 1123,
  "G2042": 1124,
  "G2043": 1125,
  "G2044": 1126,
  "G2045": 1127,
  "G2046": 1128,
  "G2047": 1129,
  "G2048": 1130,
  "G2049": 1131,
  "G205": 1132,
  "G2050": 1133,
  "G2051": 1134,
  "G2052": 1135,
  "G2053": 1136,
  "G2054": 1137,
  "G2055": 1138,
  "G2057": 1139,
  "G2058": 1140,
  "G2059": 1141,
  "G206": 1142,
  "G2060": 1143,
  "G2061": 1144,
  "G2062": 1145,
  "G2063": 1146,
  "G2065": 1147,
  "G2066": 1148,
  "G2067": 1149,
  "G2068": 1150,
  "G2069": 1151,
  "G207": 1152,
  "G2070": 1153,
  "G2071": 1154,
  "G2072": 1155,
  "G2073": 1156,
  "G2074": 1157,
  "G2075": 1158,
  "G2076": 1159,
  "G2077": 1160,
  "G2078": 1161,
  "G2079": 1162,
  "G208": 1163,
  "G2080": 1164,
  "G2081": 1165,
  "G2083": 1166,
  "G2084": 1167,
  "G2085": 1168,
  "G2086": 1169,
  "G2087": 1170,
  "G2088": 1171,
  "G2089": 1172,
  "G209": 1173,
  "G2090": 1174,
  "G2091": 1175,
  "G2092": 1176,
  "G2093": 1177,
  "G2094": 1178,
  "G2095": 1179,
  "G2096": 1180,
  "G2097": 1181,
  "G2098": 1182,
  "G2099": 1183,
  "G21": 1184,
  "G210": 1185,
  "G2100": 1186,
  "G2101": 1187,
  "G2102": 1188,
  "G2103": 1189,
  "G2104": 1190,
  "G2105": 1191,
  "G2106": 1192,
  "G2107": 1193,
  "G2108": 1194,
  "G2109": 1195,
  "G211": 1196,
  "G2110": 1197,
  "G2111": 1198,
  "G2112": 1199,
  "G2113": 1200,
  "G2114": 1201,
  "G2115": 1202,
  "G2116": 1203,
  "G2117": 1204,
  "G2118": 1205,
  "G2119": 1206,
  "G212": 1207,
  "G2120": 1208,
  "G2121": 1209,
  "G2122": 1210,
  "G2123": 1211,
  "G2124": 1212,
  "G2125": 1213,
  "G2126": 1214,
  "G2127": 1215,
  "G2128": 1216,
  "G2129": 1217,
  "G213": 1218,
  "G2130": 1219,
  "G2131": 1220,
  "G2132": 1221,
  "G2133": 1222,
  "G2134": 1223,
  "G2135": 1224,
  "G2136": 1225,
  "G2137": 1226,
  "G2139": 1227,
  "G214": 1228,
  "G2140": 1229,
  "G2141": 1230,
  "G2143": 1231,
  "G2144": 1232,
  "G2147": 1233,
  "G2148": 1234,
  "G2149": 1235,
  "G215": 1236,
  "G2150": 1237,
  "G2151": 1238,
  "G2152": 1239,
  "G2153": 1240,
  "G2154": 1241,
  "G2156": 1242,
  "G2157": 1243,
  "G2158": 1244,
  "G2159": 1245,
  "G216": 1246,
  "G2160": 1247,
  "G2161": 1248,
  "G2162": 1249,
  "G2163": 1250,
  "G2164": 1251,
  "G2165": 1252,
  "G2166": 1253,
  "G2167": 1254,
  "G2168": 1255,
  "G2169": 1256,
  "G217": 1257,
  "G2170": 1258,
  "G2171": 1259,
  "G2172": 1260,
  "G2173": 1261,
  "G2174": 1262,
  "G2175": 1263,
  "G2176": 1264,
  "G2177": 1265,
  "G2178": 1266,
  "G2179": 1267,
  "G218": 1268,
  "G2180": 1269,
  "G2181": 1270,
  "G2183": 1271,
  "G2184": 1272,
  "G2185": 1273,
  "G2186": 1274,
  "G2188": 1275,
  "G2189": 1276,
  "G219": 1277,
  "G2190": 1278,
  "G2191": 1279,
  "G2192": 1280,
  "G2193": 1281,
  "G2194": 1282,
  "G2195": 1283,
  "G2196": 1284,
  "G2197": 1285,
  "G2198": 1286,
  "G2199": 1287,
  "G22": 1288,
  "G220": 1289,
  "G2200": 1290,
  "G2201": 1291,
  "G2202": 1292,
  "G2203": 1293,
  "G2204": 1294,
  "G2205": 1295,
  "G2206": 1296,
  "G2207": 1297,
  "G2208": 1298,
  "G2209": 1299,
  "G221": 1300,
  "G2210": 1301,
  "G2211": 1302,
  "G2212": 1303,
  "G2213": 1304,
  "G2214": 1305,
  "G2215": 1306,
  "G2216": 1307,
  "G2217": 1308,
  "G2218": 1309,
  "G2219": 1310,
  "G222": 1311,
  "G2220": 1312,
  "G2221": 1313,
  "G2222": 1314,
  "G2223": 1315,
  "G2224": 1316,
  "G2225": 1317,
  "G2226": 1318,
  "G2228": 1319,
  "G2229": 1320,
  "G223": 1321,
  "G2230": 1322,
  "G2231": 1323,
  "G2232": 1324,
  "G2233": 1325,
  "G2234": 1326,
  "G2236": 1327,
  "G2237": 1328,
  "G2238": 1329,
  "G2239": 1330,
  "G224": 1331,
  "G2240": 1332,
  "G2241": 1333,
  "G2242": 1334,
  "G2243": 1335,
  "G2244": 1336,
  "G2245": 1337,
  "G2246": 1338,
  "G2247": 1339,
  "G2248": 1340,
  "G2249": 1341,
  "G225": 1342,
  "G2250": 1343,
  "G2251": 1344,
  "G2252": 1345,
  "G2253": 1346,
  "G2254": 1347,
  "G2255": 1348,
  "G2256": 1349,
  "G2257": 1350,
  "G2258": 1351,
  "G2259": 1352,
  "G226": 1353,
  "G2260": 1354,
  "G2261": 1355,
  "G2262": 1356,
  "G2263": 1357,
  "G2264": 1358,
  "G2265": 1359,
  "G2266": 1360,
  "G2267": 1361,
  "G2268": 1362,
  "G2269": 1363,
  "G227": 1364,
  "G2270": 1365,
  "G2271": 1366,
  "G2272": 1367,
  "G2273": 1368,
  "G2274": 1369,
  "G2275": 1370,
  "G2276": 1371,
  "G2277": 1372,
  "G2278": 1373,
  "G2279": 1374,
  "G228": 1375,
  "G2280": 1376,
  "G2281": 1377,
  "G2282": 1378,
  "G2283": 1379,
  "G2284": 1380,
  "G2285": 1381,
  "G2286": 1382,
  "G2287": 1383,
  "G2288": 1384,
  "G2289": 1385,
  "G229": 1386,
  "G2290": 1387,
  "G2291": 1388,
  "G2292": 1389,
  "G2293": 1390,
  "G2294": 1391,
  "G2295": 1392,
  "G2296": 1393,
  "G2297": 1394,
  "G2298": 1395,
  "G2299": 1396,
  "G23": 1397,
  "G230": 1398,
  "G2300": 1399,
  "G2301": 1400,
  "G2302": 1401,
  "G2303": 1402,
  "G2304": 1403,
  "G2305": 1404,
  "G2306": 1405,
  "G2307": 1406,
  "G2308": 1407,
  "G2309": 1408,
  "G231": 1409,
  "G2310": 1410,
  "G2311": 1411,
  "G2312": 1412,
  "G2313": 1413,
  "G2314": 1414,
  "G2315": 1415,
  "G2316": 1416,
  "G2317": 1417,
  "G2318": 1418,
  "G2319": 1419,
  "G232": 1420,
  "G2320": 1421,
  "G2321": 1422,
  "G2322": 1423,
  "G2323": 1424,
  "G2324": 1425,
  "G2325": 1426,
  "G2326": 1427,
  "G2327": 1428,
  "G2328": 1429,
  "G2329": 1430,
  "G2330": 1431,
  "G2331": 1432,
  "G2332": 1433,
  "G2335": 1434,
  "G2337": 1435,
  "G2339": 1436,
  "G234": 1437,
  "G2340": 1438,
  "G2341": 1439,
  "G2342": 1440,
  "G2343": 1441,
  "G2344": 1442,
  "G2345": 1443,
  "G2346": 1444,
  "G2347": 1445,
  "G2348": 1446,
  "G2349": 1447,
  "G235": 1448,
  "G2350": 1449,
  "G2351": 1450,
  "G2352": 1451,
  "G2353": 1452,
  "G2354": 1453,
  "G2355": 1454,
  "G2356": 1455,
  "G2357": 1456,
  "G2358": 1457,
  "G2359": 1458,
  "G236": 1459,
  "G2361": 1460,
  "G2362": 1461,
  "G2364": 1462,
  "G2365": 1463,
  "G2366": 1464,
  "G2367": 1465,
  "G2368": 1466,
  "G2369": 1467,
  "G237": 1468,
  "G2370": 1469,
  "G2371": 1470,
  "G2372": 1471,
  "G2373": 1472,
  "G2375": 1473,
  "G2376": 1474,
  "G2377": 1475,
  "G2378": 1476,
  "G2379": 1477,
  "G238": 1478,
  "G2380": 1479,
  "G2381": 1480,
  "G2383": 1481,
  "G2384": 1482,
  "G2385": 1483,
  "G2386": 1484,
  "G2387": 1485,
  "G2388": 1486,
  "G2389": 1487,
  "G239": 1488,
  "G2390": 1489,
  "G2391": 1490,
  "G2392": 1491,
  "G2393": 1492,
  "G2394": 1493,
  "G2395": 1494,
  "G2396": 1495,
  "G2397": 1496,
  "G2398": 1497,
  "G2399": 1498,
  "G24": 1499,
  "G240": 1500,
  "G2400": 1501,
  "G2401": 1502,
  "G2402": 1503,
  "G2403": 1504,
  "G2404": 1505,
  "G2405": 1506,
  "G2406": 1507,
  "G2407": 1508,
  "G2408": 1509,
  "G2409": 1510,
  "G241": 1511,
  "G2410": 1512,
  "G2411": 1513,
  "G2412": 1514,
  "G2414": 1515,
  "G2415": 1516,
  "G2416": 1517,
  "G2417": 1518,
  "G2418": 1519,
  "G2419": 1520,
  "G242": 1521,
  "G2420": 1522,
  "G2421": 1523,
  "G2422": 1524,
  "G2423": 1525,
  "G2424": 1526,
  "G2425": 1527,
  "G2426": 1528,
  "G2427": 1529,
  "G2428": 1530,
  "G2429": 1531,
  "G243": 1532,
  "G2430": 1533,
  "G2431": 1534,
  "G2432": 1535,
  "G2433": 1536,
  "G2434": 1537,
  "G2435": 1538,
  "G2436": 1539,
  "G2437": 1540,
  "G2438": 1541,
  "G2439": 1542,
  "G244": 1543,
  "G2440": 1544,
  "G2441": 1545,
  "G2442": 1546,
  "G2443": 1547,
  "G2444": 1548,
  "G2445": 1549,
  "G2446": 1550,
  "G2447": 1551,
  "G2448": 1552,
  "G2449": 1553,
  "G245": 1554,
  "G2450": 1555,
  "G2451": 1556,
  "G2452": 1557,
  "G2453": 1558,
  "G2454": 1559,
  "G2455": 1560,
  "G2456": 1561,
  "G2457": 1562,
  "G2458": 1563,
  "G2459": 1564,
  "G246": 1565,
  "G2460": 1566,
  "G2461": 1567,
  "G2462": 1568,
  "G2464": 1569,
  "G2465": 1570,
  "G2466": 1571,
  "G2467": 1572,
  "G2468": 1573,
  "G2469": 1574,
  "G247": 1575,
  "G2470": 1576,
  "G2471": 1577,
  "G2472": 1578,
  "G2473": 1579,
  "G2475": 1580,
  "G2477": 1581,
  "G2478": 1582,
  "G2479": 1583,
  "G248": 1584,
  "G2481": 1585,
  "G2482": 1586,
  "G2483": 1587,
  "G2484": 1588,
  "G2485": 1589,
  "G2486": 1590,
  "G2487": 1591,
  "G2488": 1592,
  "G2489": 1593,
  "G249": 1594,
  "G2490": 1595,
  "G2491": 1596,
  "G2492": 1597,
  "G2493": 1598,
  "G2494": 1599,
  "G2495": 1600,
  "G2496": 1601,
  "G2497": 1602,
  "G2498": 1603,
  "G2499": 1604,
  "G25": 1605,
  "G250": 1606,
  "G2501": 1607,
  "G2502": 1608,
  "G2503": 1609,
  "G2504": 1610,
  "G2505": 1611,
  "G2506": 1612,
  "G2507": 1613,
  "G2508": 1614,
  "G2509": 1615,
  "G251": 1616,
  "G2511": 1617,
  "G2512": 1618,
  "G2513": 1619,
  "G2514": 1620,
  "G2515": 1621,
  "G2516": 1622,
  "G2517": 1623,
  "G2518": 1624,
  "G2519": 1625,
  "G252": 1626,
  "G2520": 1627,
  "G2521": 1628,
  "G2522": 1629,
  "G2523": 1630,
  "G2524": 1631,
  "G2525": 1632,
  "G2526": 1633,
  "G2527": 1634,
  "G2528": 1635,
  "G2529": 1636,
  "G253": 1637,
  "G2530": 1638,
  "G2531": 1639,
  "G2532": 1640,
  "G2534": 1641,
  "G2535": 1642,
  "G2536": 1643,
  "G2537": 1644,
  "G2538": 1645,
  "G2539": 1646,
  "G254": 1647,
  "G2540": 1648,
  "G2541": 1649,
  "G2542": 1650,
  "G2543": 1651,
  "G2544": 1652,
  "G2545": 1653,
  "G2546": 1654,
  "G2547": 1655,
  "G2548": 1656,
  "G2549": 1657,
  "G255": 1658,
  "G2550": 1659,
  "G2551": 1660,
  "G2552": 1661,
  "G2553": 1662,
  "G2554": 1663,
  "G2555": 1664,
  "G2556": 1665,
  "G2557": 1666,
  "G2558": 1667,
  "G2559": 1668,
  "G256": 1669,
  "G2560": 1670,
  "G2561": 1671,
  "G2562": 1672,
  "G2563": 1673,
  "G2564": 1674,
  "G2565": 1675,
  "G2566": 1676,
  "G2567": 1677,
  "G2568": 1678,
  "G2569": 1679,
  "G257": 1680,
  "G2570": 1681,
  "G2571": 1682,
  "G2572": 1683,
  "G2573": 1684,
  "G2574": 1685,
  "G2575": 1686,
  "G2576": 1687,
  "G2577": 1688,
  "G2578": 1689,
  "G2579": 1690,
  "G258": 1691,
  "G2580": 1692,
  "G2581": 1693,
  "G2582": 1694,
  "G2583": 1695,
  "G2584": 1696,
  "G2585": 1697,
  "G2586": 1698,
  "G2588": 1699,
  "G2589": 1700,
  "G259": 1701,
  "G2590": 1702,
  "G2591": 1703,
  "G2592": 1704,
  "G2593": 1705,
  "G2595": 1706,
  "G2596": 1707,
  "G2597": 1708,
  "G2598": 1709,
  "G2599": 1710,
  "G26": 1711,
  "G260": 1712,
  "G2600": 1713,
  "G2601": 1714,
  "G2602": 1715,
  "G2603": 1716,
  "G2604": 1717,
  "G2605": 1718,
  "G2606": 1719,
  "G2607": 1720,
  "G2608": 1721,
  "G2609": 1722,
  "G261": 1723,
  "G2610": 1724,
  "G2611": 1725,
  "G2612": 1726,
  "G2613": 1727,
  "G2614": 1728,
  "G2615": 1729,
  "G2616": 1730,
  "G2617": 1731,
  "G2618": 1732,
  "G2619": 1733,
  "G262": 1734,
  "G2620": 1735,
  "G2621": 1736,
  "G2622": 1737,
  "G2623": 1738,
  "G2624": 1739,
  "G2625": 1740,
  "G2626": 1741,
  "G2627": 1742,
  "G2628": 1743,
  "G2629": 1744,
  "G263": 1745,
  "G2630": 1746,
  "G2631": 1747,
  "G2632": 1748,
  "G2633": 1749,
  "G2634": 1750,
  "G2635": 1751,
  "G2636": 1752,
  "G2638": 1753,
  "G2639": 1754,
  "G264": 1755,
  "G2640": 1756,
  "G2641": 1757,
  "G2642": 1758,
  "G2643": 1759,
  "G2644": 1760,
  "G2645": 1761,
  "G2646": 1762,
  "G2647": 1763,
  "G2648": 1764,
  "G2649": 1765,
  "G265": 1766,
  "G2651": 1767,
  "G2652": 1768,
  "G2653": 1769,
  "G2654": 1770,
  "G2655": 1771,
  "G2656": 1772,
  "G2657": 1773,
  "G2659": 1774,
  "G266": 1775,
  "G2660": 1776,
  "G2661": 1777,
  "G2662": 1778,
  "G2663": 1779,
  "G2664": 1780,
  "G2665": 1781,
  "G2666": 1782,
  "G2667": 1783,
  "G2668": 1784,
  "G2669": 1785,
  "G267": 1786,
  "G2670": 1787,
  "G2671": 1788,
  "G2672": 1789,
  "G2673": 1790,
  "G2674": 1791,
  "G2675": 1792,
  "G2676": 1793,
  "G2677": 1794,
  "G2678": 1795,
  "G2679": 1796,
  "G268": 1797,
  "G2680": 1798,
  "G2681": 1799,
  "G2682": 1800,
  "G2683": 1801,
  "G2684": 1802,
  "G2685": 1803,
  "G2686": 1804,
  "G2687": 1805,
  "G2688": 1806,
  "G2689": 1807,
  "G269": 1808,
  "G2690": 1809,
  "G2691": 1810,
  "G2693": 1811,
  "G2694": 1812,
  "G2695": 1813,
  "G2696": 1814,
  "G2697": 1815,
  "G2698": 1816,
  "G2699": 1817,
  "G27": 1818,
  "G270": 1819,
  "G2700": 1820,
  "G2702": 1821,
  "G2703": 1822,
  "G2704": 1823,
  "G2705": 1824,
  "G2706": 1825,
  "G2707": 1826,
  "G2708": 1827,
  "G2709": 1828,
  "G271": 1829,
  "G2710": 1830,
  "G2711": 1831,
  "G2712": 1832,
  "G2713": 1833,
  "G2714": 1834,
  "G2715": 1835,
  "G2716": 1836,
  "G2717": 1837,
  "G2718": 1838,
  "G2719": 1839,
  "G272": 1840,
  "G2720": 1841,
  "G2721": 1842,
  "G2722": 1843,
  "G2723": 1844,
  "G2724": 1845,
  "G2725": 1846,
  "G2726": 1847,
  "G2727": 1848,
  "G2728": 1849,
  "G2729": 1850,
  "G273": 1851,
  "G2730": 1852,
  "G2731": 1853,
  "G2732": 1854,
  "G2733": 1855,
  "G2734": 1856,
  "G2735": 1857,
  "G2736": 1858,
  "G2737": 1859,
  "G2738": 1860,
  "G2739": 1861,
  "G274": 1862,
  "G2740": 1863,
  "G2741": 1864,
  "G2742": 1865,
  "G2744": 1866,
  "G2745": 1867,
  "G2746": 1868,
  "G2747": 1869,
  "G2748": 1870,
  "G2749": 1871,
  "G275": 1872,
  "G2750": 1873,
  "G2751": 1874,
  "G2752": 1875,
  "G2753": 1876,
  "G2754": 1877,
  "G2755": 1878,
  "G2756": 1879,
  "G2757": 1880,
  "G2758": 1881,
  "G2759": 1882,
  "G276": 1883,
  "G2760": 1884,
  "G2761": 1885,
  "G2762": 1886,
  "G2763": 1887,
  "G2764": 1888,
  "G2765": 1889,
  "G2766": 1890,
  "G2767": 1891,
  "G2768": 1892,
  "G2769": 1893,
  "G277": 1894,
  "G2770": 1895,
  "G2771": 1896,
  "G2772": 1897,
  "G2773": 1898,
  "G2774": 1899,
  "G2775": 1900,
  "G2776": 1901,
  "G2778": 1902,
  "G2779": 1903,
  "G278": 1904,
  "G2780": 1905,
  "G2781": 1906,
  "G2782": 1907,
  "G2783": 1908,
  "G2784": 1909,
  "G2785": 1910,
  "G2786": 1911,
  "G2787": 1912,
  "G2788": 1913,
  "G2789": 1914,
  "G279": 1915,
  "G2790": 1916,
  "G2791": 1917,
  "G2792": 1918,
  "G2793": 1919,
  "G2794": 1920,
  "G2795": 1921,
  "G2797": 1922,
  "G2798": 1923,
  "G2799": 1924,
  "G28": 1925,
  "G280": 1926,
  "G2800": 1927,
  "G2801": 1928,
  "G2803": 1929,
  "G2804": 1930,
  "G2805": 1931,
  "G2806": 1932,
  "G2807": 1933,
  "G2808": 1934,
  "G2809": 1935,
  "G281": 1936,
  "G2810": 1937,
  "G2811": 1938,
  "G2812": 1939,
  "G2813": 1940,
  "G2814": 1941,
  "G2815": 1942,
  "G2816": 1943,
  "G2817": 1944,
  "G2818": 1945,
  "G2819": 1946,
  "G282": 1947,
  "G2820": 1948,
  "G2821": 1949,
  "G2822": 1950,
  "G2824": 1951,
  "G2825": 1952,
  "G2826": 1953,
  "G2827": 1954,
  "G2828": 1955,
  "G2829": 1956,
  "G283": 1957,
  "G2831": 1958,
  "G2832": 1959,
  "G2833": 1960,
  "G2834": 1961,
  "G2835": 1962,
  "G2836": 1963,
  "G2837": 1964,
  "G2838": 1965,
  "G2839": 1966,
  "G284": 1967,
  "G2840": 1968,
  "G2841": 1969,
  "G2842": 1970,
  "G2843": 1971,
  "G2844": 1972,
  "G2845": 1973,
  "G2846": 1974,
  "G2847": 1975,
  "G2848": 1976,
  "G2849": 1977,
  "G285": 1978,
  "G2850": 1979,
  "G2851": 1980,
  "G2852": 1981,
  "G2853": 1982,
  "G2854": 1983,
  "G2855": 1984,
  "G2856": 1985,
  "G2857": 1986,
  "G2858": 1987,
  "G2859": 1988,
  "G286": 1989,
  "G2860": 1990,
  "G2861": 1991,
  "G2862": 1992,
  "G2863": 1993,
  "G2864": 1994,
  "G2865": 1995,
  "G2866": 1996,
  "G2867": 1997,
  "G2868": 1998,
  "G2869": 1999,
  "G287": 2000,
  "G2870": 2001,
  "G2871": 2002,
  "G2872": 2003,
  "G2873": 2004,
  "G2874": 2005,
  "G2875": 2006,
  "G2876": 2007,
  "G2877": 2008,
  "G2878": 2009,
  "G2879": 2010,
  "G288": 2011,
  "G2880": 2012,
  "G2881": 2013,
  "G2882": 2014,
  "G2883": 2015,
  "G2884": 2016,
  "G2885": 2017,
  "G2886": 2018,
  "G2887": 2019,
  "G2888": 2020,
  "G2889": 2021,
  "G289": 2022,
  "G2890": 2023,
  "G2891": 2024,
  "G2892": 2025,
  "G2893": 2026,
  "G2894": 2027,
  "G2895": 2028,
  "G2896": 2029,
  "G2897": 2030,
  "G2898": 2031,
  "G2899": 2032,
  "G29": 2033,
  "G290": 2034,
  "G2900": 2035,
  "G2901": 2036,
  "G2902": 2037,
  "G2903": 2038,
  "G2904": 2039,
  "G2905": 2040,
  "G2906": 2041,
  "G2907": 2042,
  "G2908": 2043,
  "G2909": 2044,
  "G291": 2045,
  "G2910": 2046,
  "G2911": 2047,
  "G2912": 2048,
  "G2913": 2049,
  "G2914": 2050,
  "G2915": 2051,
  "G2916": 2052,
  "G2917": 2053,
  "G2918": 2054,
  "G2919": 2055,
  "G292": 2056,
  "G2920": 2057,
  "G2921": 2058,
  "G2922": 2059,
  "G2923": 2060,
  "G2924": 2061,
  "G2926": 2062,
  "G2927": 2063,
  "G2929": 2064,
  "G293": 2065,
  "G2930": 2066,
  "G2931": 2067,
  "G2932": 2068,
  "G2933": 2069,
  "G2934": 2070,
  "G2935": 2071,
  "G2936": 2072,
  "G2937": 2073,
  "G2938": 2074,
  "G2939": 2075,
  "G294": 2076,
  "G2940": 2077,
  "G2941": 2078,
  "G2942": 2079,
  "G2943": 2080,
  "G2944": 2081,
  "G2945": 2082,
  "G2946": 2083,
  "G2947": 2084,
  "G2948": 2085,
  "G2949": 2086,
  "G295": 2087,
  "G2950": 2088,
  "G2951": 2089,
  "G2952": 2090,
  "G2953": 2091,
  "G2954": 2092,
  "G2955": 2093,
  "G2956": 2094,
  "G2957": 2095,
  "G2958": 2096,
  "G2959": 2097,
  "G296": 2098,
  "G2960": 2099,
  "G2961": 2100,
  "G2963": 2101,
  "G2964": 2102,
  "G2965": 2103,
  "G2966": 2104,
  "G2967": 2105,
  "G2968": 2106,
  "G2969": 2107,
  "G297": 2108,
  "G2970": 2109,
  "G2971": 2110,
  "G2972": 2111,
  "G2973": 2112,
  "G2974": 2113,
  "G2975": 2114,
  "G2976": 2115,
  "G2979": 2116,
  "G298": 2117,
  "G2980": 2118,
  "G2981": 2119,
  "G2982": 2120,
  "G2983": 2121,
  "G2984": 2122,
  "G2985": 2123,
  "G2986": 2124,
  "G2987": 2125,
  "G2988": 2126,
  "G2989": 2127,
  "G299": 2128,
  "G2990": 2129,
  "G2991": 2130,
  "G2992": 2131,
  "G2993": 2132,
  "G2994": 2133,
  "G2995": 2134,
  "G2996": 2135,
  "G2997": 2136,
  "G2998": 2137,
  "G2999": 2138,
  "G3": 2139,
  "G30": 2140,
  "G300": 2141,
  "G3000": 2142,
  "G3001": 2143,
  "G3002": 2144,
  "G3003": 2145,
  "G3004": 2146,
  "G3005": 2147,
  "G3006": 2148,
  "G3007": 2149,
  "G3008": 2150,
  "G3009": 2151,
  "G301": 2152,
  "G3010": 2153,
  "G3011": 2154,
  "G3012": 2155,
  "G3013": 2156,
  "G3014": 2157,
  "G3015": 2158,
  "G3016": 2159,
  "G3017": 2160,
  "G3018": 2161,
  "G3019": 2162,
  "G302": 2163,
  "G3021": 2164,
  "G3022": 2165,
  "G3023": 2166,
  "G3024": 2167,
  "G3025": 2168,
  "G3026": 2169,
  "G3027": 2170,
  "G3028": 2171,
  "G3029": 2172,
  "G303": 2173,
  "G3030": 2174,
  "G3031": 2175,
  "G3032": 2176,
  "G3033": 2177,
  "G3034": 2178,
  "G3035": 2179,
  "G3036": 2180,
  "G3037": 2181,
  "G3038": 2182,
  "G3039": 2183,
  "G304": 2184,
  "G3040": 2185,
  "G3041": 2186,
  "G3042": 2187,
  "G3043": 2188,
  "G3044": 2189,
  "G3045": 2190,
  "G3046": 2191,
  "G3047": 2192,
  "G3048": 2193,
  "G3049": 2194,
  "G3051": 2195,
  "G3052": 2196,
  "G3053": 2197,
  "G3054": 2198,
  "G3055": 2199,
  "G3056": 2200,
  "G3057": 2201,
  "G3058": 2202,
  "G3059": 2203,
  "G306": 2204,
  "G3060": 2205,
  "G3061": 2206,
  "G3062": 2207,
  "G3063": 2208,
  "G3064": 2209,
  "G3065": 2210,
  "G3066": 2211,
  "G3067": 2212,
  "G3068": 2213,
  "G3069": 2214,
  "G307": 2215,
  "G3070": 2216,
  "G3071": 2217,
  "G3072": 2218,
  "G3073": 2219,
  "G3074": 2220,
  "G3075": 2221,
  "G3076": 2222,
  "G3077": 2223,
  "G3078": 2224,
  "G3079": 2225,
  "G308": 2226,
  "G3080": 2227,
  "G3081": 2228,
  "G3082": 2229,
  "G3083": 2230,
  "G3084": 2231,
  "G3085": 2232,
  "G3086": 2233,
  "G3087": 2234,
  "G3088": 2235,
  "G3089": 2236,
  "G309": 2237,
  "G3090": 2238,
  "G3091": 2239,
  "G3092": 2240,
  "G3093": 2241,
  "G3094": 2242,
  "G3095": 2243,
  "G3096": 2244,
  "G3097": 2245,
  "G3098": 2246,
  "G3099": 2247,
  "G31": 2248,
  "G310": 2249,
  "G3100": 2250,
  "G3101": 2251,
  "G3102": 2252,
  "G3103": 2253,
  "G3104": 2254,
  "G3105": 2255,
  "G3106": 2256,
  "G3107": 2257,
  "G3108": 2258,
  "G3109": 2259,
  "G311": 2260,
  "G3110": 2261,
  "G3111": 2262,
  "G3112": 2263,
  "G3113": 2264,
  "G3114": 2265,
  "G3115": 2266,
  "G3116": 2267,
  "G3117": 2268,
  "G3118": 2269,
  "G3119": 2270,
  "G312": 2271,
  "G3120": 2272,
  "G3121": 2273,
  "G3123": 2274,
  "G3124": 2275,
  "G3125": 2276,
  "G3126": 2277,
  "G3127": 2278,
  "G3128": 2279,
  "G3129": 2280,
  "G313": 2281,
  "G3130": 2282,
  "G3131": 2283,
  "G3132": 2284,
  "G3133": 2285,
  "G3134": 2286,
  "G3135": 2287,
  "G3136": 2288,
  "G3137": 2289,
  "G3138": 2290,
  "G3139": 2291,
  "G314": 2292,
  "G3140": 2293,
  "G3141": 2294,
  "G3142": 2295,
  "G3143": 2296,
  "G3144": 2297,
  "G3145": 2298,
  "G3146": 2299,
  "G3147": 2300,
  "G3148": 2301,
  "G3149": 2302,
  "G3150": 2303,
  "G3151": 2304,
  "G3152": 2305,
  "G3153": 2306,
  "G3154": 2307,
  "G3155": 2308,
  "G3156": 2309,
  "G3157": 2310,
  "G3158": 2311,
  "G3159": 2312,
  "G316": 2313,
  "G3160": 2314,
  "G3161": 2315,
  "G3162": 2316,
  "G3163": 2317,
  "G3164": 2318,
  "G3165": 2319,
  "G3166": 2320,
  "G3167": 2321,
  "G3168": 2322,
  "G3169": 2323,
  "G317": 2324,
  "G3170": 2325,
  "G3171": 2326,
  "G3172": 2327,
  "G3173": 2328,
  "G3174": 2329,
  "G3175": 2330,
  "G3176": 2331,
  "G3177": 2332,
  "G3178": 2333,
  "G318": 2334,
  "G3180": 2335,
  "G3181": 2336,
  "G3182": 2337,
  "G3183": 2338,
  "G3184": 2339,
  "G3185": 2340,
  "G3186": 2341,
  "G3187": 2342,
  "G3188": 2343,
  "G3189": 2344,
  "G319": 2345,
  "G3190": 2346,
  "G3191": 2347,
  "G3192": 2348,
  "G3193": 2349,
  "G3194": 2350,
  "G3195": 2351,
  "G3196": 2352,
  "G3197": 2353,
  "G3199": 2354,
  "G32": 2355,
  "G320": 2356,
  "G3200": 2357,
  "G3201": 2358,
  "G3202": 2359,
  "G3203": 2360,
  "G3204": 2361,
  "G3205": 2362,
  "G3206": 2363,
  "G3207": 2364,
  "G3208": 2365,
  "G3209": 2366,
  "G321": 2367,
  "G3210": 2368,
  "G3211": 2369,
  "G3212": 2370,
  "G3213": 2371,
  "G3214": 2372,
  "G3215": 2373,
  "G3216": 2374,
  "G3217": 2375,
  "G3218": 2376,
  "G3219": 2377,
  "G322": 2378,
  "G3220": 2379,
  "G3221": 2380,
  "G3222": 2381,
  "G3223": 2382,
  "G3224": 2383,
  "G3225": 2384,
  "G3226": 2385,
  "G3228": 2386,
  "G3229": 2387,
  "G323": 2388,
  "G3230": 2389,
  "G3231": 2390,
  "G3232": 2391,
  "G3233": 2392,
  "G3234": 2393,
  "G3235": 2394,
  "G3236": 2395,
  "G3237": 2396,
  "G3238": 2397,
  "G3239": 2398,
  "G324": 2399,
  "G3240": 2400,
  "G3241": 2401,
  "G3242": 2402,
  "G3243": 2403,
  "G3244": 2404,
  "G3245": 2405,
  "G3246": 2406,
  "G3247": 2407,
  "G3248": 2408,
  "G3249": 2409,
  "G325": 2410,
  "G3250": 2411,
  "G3251": 2412,
  "G3252": 2413,
  "G3253": 2414,
  "G3254": 2415,
  "G3255": 2416,
  "G3256": 2417,
  "G3257": 2418,
  "G3258": 2419,
  "G3259": 2420,
  "G326": 2421,
  "G3260": 2422,
  "G3261": 2423,
  "G3262": 2424,
  "G3263": 2425,
  "G3264": 2426,
  "G3265": 2427,
  "G3266": 2428,
  "G3267": 2429,
  "G3268": 2430,
  "G3269": 2431,
  "G327": 2432,
  "G3270": 2433,
  "G3271": 2434,
  "G3272": 2435,
  "G3273": 2436,
  "G3274": 2437,
  "G3276": 2438,
  "G3277": 2439,
  "G3278": 2440,
  "G3279": 2441,
  "G328": 2442,
  "G3280": 2443,
  "G3281": 2444,
  "G3282": 2445,
  "G3283": 2446,
  "G3284": 2447,
  "G3285": 2448,
  "G3286": 2449,
  "G3287": 2450,
  "G3288": 2451,
  "G3289": 2452,
  "G329": 2453,
  "G3290": 2454,
  "G3291": 2455,
  "G3292": 2456,
  "G3293": 2457,
  "G3294": 2458,
  "G3295": 2459,
  "G3296": 2460,
  "G3297": 2461,
  "G3298": 2462,
  "G33": 2463,
  "G330": 2464,
  "G3300": 2465,
  "G3301": 2466,
  "G3302": 2467,
  "G3303": 2468,
  "G3304": 2469,
  "G3305": 2470,
  "G3306": 2471,
  "G3307": 2472,
  "G3308": 2473,
  "G3309": 2474,
  "G331": 2475,
  "G3310": 2476,
  "G3311": 2477,
  "G3312": 2478,
  "G3313": 2479,
  "G3314": 2480,
  "G3315": 2481,
  "G3316": 2482,
  "G3317": 2483,
  "G3318": 2484,
  "G332": 2485,
  "G3320": 2486,
  "G3321": 2487,
  "G3322": 2488,
  "G3323": 2489,
  "G3324": 2490,
  "G3325": 2491,
  "G3326": 2492,
  "G3327": 2493,
  "G3328": 2494,
  "G3329": 2495,
  "G333": 2496,
  "G3330": 2497,
  "G3331": 2498,
  "G3332": 2499,
  "G3333": 2500,
  "G3334": 2501,
  "G3335": 2502,
  "G3336": 2503,
  "G3337": 2504,
  "G3338": 2505,
  "G3339": 2506,
  "G334": 2507,
  "G3340": 2508,
  "G3341": 2509,
  "G3342": 2510,
  "G3343": 2511,
  "G3344": 2512,
  "G3345": 2513,
  "G3346": 2514,
  "G3347": 2515,
  "G3348": 2516,
  "G3349": 2517,
  "G335": 2518,
  "G3351": 2519,
  "G3352": 2520,
  "G3353": 2521,
  "G3354": 2522,
  "G3355": 2523,
  "G3356": 2524,
  "G3357": 2525,
  "G3358": 2526,
  "G3359": 2527,
  "G336": 2528,
  "G3360": 2529,
  "G3361": 2530,
  "G3362": 2531,
  "G3363": 2532,
  "G3364": 2533,
  "G3365": 2534,
  "G3366": 2535,
  "G3367": 2536,
  "G3368": 2537,
  "G3369": 2538,
  "G337": 2539,
  "G3370": 2540,
  "G3371": 2541,
  "G3372": 2542,
  "G3373": 2543,
  "G3374": 2544,
  "G3375": 2545,
  "G3376": 2546,
  "G3377": 2547,
  "G3378": 2548,
  "G3379": 2549,
  "G338": 2550,
  "G3380": 2551,
  "G3381": 2552,
  "G3382": 2553,
  "G3383": 2554,
  "G3384": 2555,
  "G3385": 2556,
  "G3386": 2557,
  "G3387": 2558,
  "G3388": 2559,
  "G3389": 2560,
  "G339": 2561,
  "G3390": 2562,
  "G3391": 2563,
  "G3392": 2564,
  "G3393": 2565,
  "G3394": 2566,
  "G3395": 2567,
  "G3396": 2568,
  "G3397": 2569,
  "G3398": 2570,
  "G3399": 2571,
  "G34": 2572,
  "G340": 2573,
  "G3400": 2574,
  "G3401": 2575,
  "G3402": 2576,
  "G3403": 2577,
  "G3404": 2578,
  "G3405": 2579,
  "G3406": 2580,
  "G3407": 2581,
  "G3408": 2582,
  "G3409": 2583,
  "G341": 2584,
  "G3410": 2585,
  "G3411": 2586,
  "G3412": 2587,
  "G3413": 2588,
  "G3414": 2589,
  "G3415": 2590,
  "G3416": 2591,
  "G3417": 2592,
  "G3418": 2593,
  "G3419": 2594,
  "G342": 2595,
  "G3420": 2596,
  "G3421": 2597,
  "G3422": 2598,
  "G3423": 2599,
  "G3424": 2600,
  "G3425": 2601,
  "G3426": 2602,
  "G3427": 2603,
  "G3428": 2604,
  "G3429": 2605,
  "G343": 2606,
  "G3430": 2607,
  "G3431": 2608,
  "G3432": 2609,
  "G3433": 2610,
  "G3434": 2611,
  "G3435": 2612,
  "G3437": 2613,
  "G3438": 2614,
  "G3439": 2615,
  "G344": 2616,
  "G3440": 2617,
  "G3441": 2618,
  "G3442": 2619,
  "G3443": 2620,
  "G3444": 2621,
  "G3445": 2622,
  "G3447": 2623,
  "G3448": 2624,
  "G3449": 2625,
  "G345": 2626,
  "G3450": 2627,
  "G3451": 2628,
  "G3452": 2629,
  "G3453": 2630,
  "G3454": 2631,
  "G3455": 2632,
  "G3456": 2633,
  "G3457": 2634,
  "G3458": 2635,
  "G3459": 2636,
  "G346": 2637,
  "G3460": 2638,
  "G3461": 2639,
  "G3462": 2640,
  "G3463": 2641,
  "G3464": 2642,
  "G3465": 2643,
  "G3466": 2644,
  "G3467": 2645,
  "G3468": 2646,
  "G3469": 2647,
  "G347": 2648,
  "G3470": 2649,
  "G3471": 2650,
  "G3472": 2651,
  "G3473": 2652,
  "G3474": 2653,
  "G3475": 2654,
  "G3476": 2655,
  "G3477": 2656,
  "G3478": 2657,
  "G3479": 2658,
  "G348": 2659,
  "G3480": 2660,
  "G3481": 2661,
  "G3482": 2662,
  "G3483": 2663,
  "G3484": 2664,
  "G3485": 2665,
  "G3486": 2666,
  "G3487": 2667,
  "G3488": 2668,
  "G3489": 2669,
  "G349": 2670,
  "G3490": 2671,
  "G3491": 2672,
  "G3492": 2673,
  "G3493": 2674,
  "G3495": 2675,
  "G3496": 2676,
  "G3497": 2677,
  "G3498": 2678,
  "G3499": 2679,
  "G35": 2680,
  "G350": 2681,
  "G3500": 2682,
  "G3501": 2683,
  "G3502": 2684,
  "G3503": 2685,
  "G3504": 2686,
  "G3505": 2687,
  "G3506": 2688,
  "G3507": 2689,
  "G3508": 2690,
  "G3509": 2691,
  "G351": 2692,
  "G3510": 2693,
  "G3512": 2694,
  "G3513": 2695,
  "G3514": 2696,
  "G3515": 2697,
  "G3516": 2698,
  "G3517": 2699,
  "G3518": 2700,
  "G3519": 2701,
  "G352": 2702,
  "G3521": 2703,
  "G3522": 2704,
  "G3523": 2705,
  "G3524": 2706,
  "G3525": 2707,
  "G3526": 2708,
  "G3527": 2709,
  "G3528": 2710,
  "G3529": 2711,
  "G353": 2712,
  "G3530": 2713,
  "G3531": 2714,
  "G3532": 2715,
  "G3533": 2716,
  "G3534": 2717,
  "G3535": 2718,
  "G3536": 2719,
  "G3537": 2720,
  "G3538": 2721,
  "G3539": 2722,
  "G354": 2723,
  "G3540": 2724,
  "G3541": 2725,
  "G3542": 2726,
  "G3543": 2727,
  "G3544": 2728,
  "G3546": 2729,
  "G3547": 2730,
  "G3548": 2731,
  "G355": 2732,
  "G3550": 2733,
  "G3551": 2734,
  "G3552": 2735,
  "G3555": 2736,
  "G3556": 2737,
  "G3557": 2738,
  "G3558": 2739,
  "G3559": 2740,
  "G356": 2741,
  "G3560": 2742,
  "G3561": 2743,
  "G3562": 2744,
  "G3564": 2745,
  "G3565": 2746,
  "G3566": 2747,
  "G3567": 2748,
  "G3568": 2749,
  "G3569": 2750,
  "G357": 2751,
  "G3570": 2752,
  "G3571": 2753,
  "G3572": 2754,
  "G3573": 2755,
  "G3574": 2756,
  "G3575": 2757,
  "G3576": 2758,
  "G3577": 2759,
  "G3578": 2760,
  "G3579": 2761,
  "G358": 2762,
  "G3580": 2763,
  "G3581": 2764,
  "G3582": 2765,
  "G3583": 2766,
  "G3584": 2767,
  "G3585": 2768,
  "G3586": 2769,
  "G3587": 2770,
  "G3588": 2771,
  "G3589": 2772,
  "G359": 2773,
  "G3590": 2774,
  "G3591": 2775,
  "G3592": 2776,
  "G3593": 2777,
  "G3594": 2778,
  "G3595": 2779,
  "G3596": 2780,
  "G3597": 2781,
  "G3598": 2782,
  "G3599": 2783,
  "G36": 2784,
  "G360": 2785,
  "G3600": 2786,
  "G3601": 2787,
  "G3602": 2788,
  "G3603": 2789,
  "G3605": 2790,
  "G3607": 2791,
  "G3608": 2792,
  "G3609": 2793,
  "G361": 2794,
  "G3610": 2795,
  "G3611": 2796,
  "G3612": 2797,
  "G3613": 2798,
  "G3614": 2799,
  "G3615": 2800,
  "G3616": 2801,
  "G3617": 2802,
  "G3618": 2803,
  "G3619": 2804,
  "G362": 2805,
  "G3620": 2806,
  "G3621": 2807,
  "G3622": 2808,
  "G3624": 2809,
  "G3625": 2810,
  "G3626": 2811,
  "G3627": 2812,
  "G3628": 2813,
  "G3629": 2814,
  "G363": 2815,
  "G3630": 2816,
  "G3631": 2817,
  "G3632": 2818,
  "G3633": 2819,
  "G3634": 2820,
  "G3635": 2821,
  "G3636": 2822,
  "G3637": 2823,
  "G3638": 2824,
  "G3639": 2825,
  "G364": 2826,
  "G3640": 2827,
  "G3641": 2828,
  "G3642": 2829,
  "G3643": 2830,
  "G3644": 2831,
  "G3645": 2832,
  "G3646": 2833,
  "G3647": 2834,
  "G3648": 2835,
  "G3649": 2836,
  "G365": 2837,
  "G3650": 2838,
  "G3651": 2839,
  "G3652": 2840,
  "G3653": 2841,
  "G3654": 2842,
  "G3655": 2843,
  "G3657": 2844,
  "G3658": 2845,
  "G3659": 2846,
  "G366": 2847,
  "G3660": 2848,
  "G3661": 2849,
  "G3662": 2850,
  "G3663": 2851,
  "G3664": 2852,
  "G3665": 2853,
  "G3666": 2854,
  "G3667": 2855,
  "G3668": 2856,
  "G3669": 2857,
  "G367": 2858,
  "G3670": 2859,
  "G3671": 2860,
  "G3672": 2861,
  "G3673": 2862,
  "G3674": 2863,
  "G3675": 2864,
  "G3676": 2865,
  "G3677": 2866,
  "G3678": 2867,
  "G3679": 2868,
  "G368": 2869,
  "G3680": 2870,
  "G3681": 2871,
  "G3682": 2872,
  "G3683": 2873,
  "G3684": 2874,
  "G3685": 2875,
  "G3686": 2876,
  "G3687": 2877,
  "G3688": 2878,
  "G3689": 2879,
  "G369": 2880,
  "G3690": 2881,
  "G3691": 2882,
  "G3692": 2883,
  "G3693": 2884,
  "G3694": 2885,
  "G3695": 2886,
  "G3696": 2887,
  "G3697": 2888,
  "G3698": 2889,
  "G3699": 2890,
  "G37": 2891,
  "G370": 2892,
  "G3700": 2893,
  "G3701": 2894,
  "G3703": 2895,
  "G3704": 2896,
  "G3705": 2897,
  "G3706": 2898,
  "G3707": 2899,
  "G3708": 2900,
  "G3709": 2901,
  "G371": 2902,
  "G3710": 2903,
  "G3711": 2904,
  "G3712": 2905,
  "G3713": 2906,
  "G3714": 2907,
  "G3715": 2908,
  "G3716": 2909,
  "G3717": 2910,
  "G3718": 2911,
  "G3719": 2912,
  "G372": 2913,
  "G3720": 2914,
  "G3721": 2915,
  "G3722": 2916,
  "G3723": 2917,
  "G3724": 2918,
  "G3725": 2919,
  "G3726": 2920,
  "G3727": 2921,
  "G3728": 2922,
  "G3729": 2923,
  "G373": 2924,
  "G3730": 2925,
  "G3731": 2926,
  "G3732": 2927,
  "G3733": 2928,
  "G3734": 2929,
  "G3735": 2930,
  "G3736": 2931,
  "G3737": 2932,
  "G3738": 2933,
  "G3739": 2934,
  "G374": 2935,
  "G3740": 2936,
  "G3741": 2937,
  "G3742": 2938,
  "G3743": 2939,
  "G3744": 2940,
  "G3745": 2941,
  "G3746": 2942,
  "G3747": 2943,
  "G3748": 2944,
  "G3749": 2945,
  "G375": 2946,
  "G3750": 2947,
  "G3751": 2948,
  "G3752": 2949,
  "G3753": 2950,
  "G3754": 2951,
  "G3756": 2952,
  "G3757": 2953,
  "G3758": 2954,
  "G3759": 2955,
  "G376": 2956,
  "G3760": 2957,
  "G3761": 2958,
  "G3762": 2959,
  "G3763": 2960,
  "G3764": 2961,
  "G3765": 2962,
  "G3766": 2963,
  "G3767": 2964,
  "G3768": 2965,
  "G3769": 2966,
  "G377": 2967,
  "G3770": 2968,
  "G3771": 2969,
  "G3772": 2970,
  "G3773": 2971,
  "G3774": 2972,
  "G3775": 2973,
  "G3776": 2974,
  "G3777": 2975,
  "G3779": 2976,
  "G378": 2977,
  "G3780": 2978,
  "G3781": 2979,
  "G3782": 2980,
  "G3783": 2981,
  "G3784": 2982,
  "G3785": 2983,
  "G3786": 2984,
  "G3787": 2985,
  "G3788": 2986,
  "G3789": 2987,
  "G379": 2988,
  "G3790": 2989,
  "G3791": 2990,
  "G3792": 2991,
  "G3793": 2992,
  "G3794": 2993,
  "G3795": 2994,
  "G3796": 2995,
  "G3797": 2996,
  "G3798": 2997,
  "G3799": 2998,
  "G38": 2999,
  "G380": 3000,
  "G3800": 3001,
  "G3801": 3002,
  "G3802": 3003,
  "G3803": 3004,
  "G3805": 3005,
  "G3806": 3006,
  "G3807": 3007,
  "G3808": 3008,
  "G3809": 3009,
  "G381": 3010,
  "G3810": 3011,
  "G3811": 3012,
  "G3812": 3013,
  "G3813": 3014,
  "G3814": 3015,
  "G3815": 3016,
  "G3816": 3017,
  "G3817": 3018,
  "G3818": 3019,
  "G3819": 3020,
  "G382": 3021,
  "G3820": 3022,
  "G3821": 3023,
  "G3822": 3024,
  "G3823": 3025,
  "G3824": 3026,
  "G3825": 3027,
  "G3826": 3028,
  "G3827": 3029,
  "G3828": 3030,
  "G3829": 3031,
  "G383": 3032,
  "G3830": 3033,
  "G3831": 3034,
  "G3832": 3035,
  "G3833": 3036,
  "G3834": 3037,
  "G3835": 3038,
  "G3836": 3039,
  "G3837": 3040,
  "G3838": 3041,
  "G3839": 3042,
  "G384": 3043,
  "G3840": 3044,
  "G3841": 3045,
  "G3842": 3046,
  "G3843": 3047,
  "G3844": 3048,
  "G3845": 3049,
  "G3846": 3050,
  "G3847": 3051,
  "G3848": 3052,
  "G3849": 3053,
  "G385": 3054,
  "G3850": 3055,
  "G3851": 3056,
  "G3852": 3057,
  "G3853": 3058,
  "G3854": 3059,
  "G3855": 3060,
  "G3856": 3061,
  "G3857": 3062,
  "G3858": 3063,
  "G3859": 3064,
  "G386": 3065,
  "G3860": 3066,
  "G3861": 3067,
  "G3862": 3068,
  "G3863": 3069,
  "G3864": 3070,
  "G3865": 3071,
  "G3866": 3072,
  "G3867": 3073,
  "G3868": 3074,
  "G3869": 3075,
  "G387": 3076,
  "G3870": 3077,
  "G3871": 3078,
  "G3872": 3079,
  "G3873": 3080,
  "G3874": 3081,
  "G3875": 3082,
  "G3876": 3083,
  "G3877": 3084,
  "G3878": 3085,
  "G3879": 3086,
  "G388": 3087,
  "G3880": 3088,
  "G3881": 3089,
  "G3882": 3090,
  "G3884": 3091,
  "G3885": 3092,
  "G3886": 3093,
  "G3887": 3094,
  "G3888": 3095,
  "G3889": 3096,
  "G389": 3097,
  "G3890": 3098,
  "G3891": 3099,
  "G3892": 3100,
  "G3893": 3101,
  "G3894": 3102,
  "G3895": 3103,
  "G3896": 3104,
  "G3897": 3105,
  "G3898": 3106,
  "G3899": 3107,
  "G39": 3108,
  "G390": 3109,
  "G3900": 3110,
  "G3901": 3111,
  "G3903": 3112,
  "G3904": 3113,
  "G3905": 3114,
  "G3906": 3115,
  "G3907": 3116,
  "G3908": 3117,
  "G3909": 3118,
  "G391": 3119,
  "G3910": 3120,
  "G3911": 3121,
  "G3912": 3122,
  "G3913": 3123,
  "G3914": 3124,
  "G3915": 3125,
  "G3916": 3126,
  "G3918": 3127,
  "G3919": 3128,
  "G392": 3129,
  "G3920": 3130,
  "G3921": 3131,
  "G3922": 3132,
  "G3923": 3133,
  "G3924": 3134,
  "G3925": 3135,
  "G3926": 3136,
  "G3927": 3137,
  "G3928": 3138,
  "G3929": 3139,
  "G393": 3140,
  "G3930": 3141,
  "G3931": 3142,
  "G3932": 3143,
  "G3933": 3144,
  "G3934": 3145,
  "G3935": 3146,
  "G3936": 3147,
  "G3937": 3148,
  "G3938": 3149,
  "G3939": 3150,
  "G394": 3151,
  "G3940": 3152,
  "G3941": 3153,
  "G3942": 3154,
  "G3944": 3155,
  "G3945": 3156,
  "G3946": 3157,
  "G3947": 3158,
  "G3948": 3159,
  "G3949": 3160,
  "G395": 3161,
  "G3950": 3162,
  "G3951": 3163,
  "G3952": 3164,
  "G3953": 3165,
  "G3954": 3166,
  "G3955": 3167,
  "G3956": 3168,
  "G3957": 3169,
  "G3958": 3170,
  "G3959": 3171,
  "G396": 3172,
  "G3960": 3173,
  "G3961": 3174,
  "G3962": 3175,
  "G3963": 3176,
  "G3964": 3177,
  "G3965": 3178,
  "G3966": 3179,
  "G3967": 3180,
  "G3968": 3181,
  "G3969": 3182,
  "G397": 3183,
  "G3971": 3184,
  "G3972": 3185,
  "G3973": 3186,
  "G3974": 3187,
  "G3975": 3188,
  "G3976": 3189,
  "G3977": 3190,
  "G3978": 3191,
  "G3979": 3192,
  "G398": 3193,
  "G3980": 3194,
  "G3981": 3195,
  "G3982": 3196,
  "G3983": 3197,
  "G3984": 3198,
  "G3985": 3199,
  "G3986": 3200,
  "G3987": 3201,
  "G3988": 3202,
  "G3989": 3203,
  "G399": 3204,
  "G3990": 3205,
  "G3991": 3206,
  "G3992": 3207,
  "G3993": 3208,
  "G3994": 3209,
  "G3995": 3210,
  "G3996": 3211,
  "G3997": 3212,
  "G3998": 3213,
  "G3999": 3214,
  "G4": 3215,
  "G40": 3216,
  "G400": 3217,
  "G4000": 3218,
  "G4001": 3219,
  "G4002": 3220,
  "G4003": 3221,
  "G4004": 3222,
  "G4005": 3223,
  "G4006": 3224,
  "G4008": 3225,
  "G4009": 3226,
  "G401": 3227,
  "G4010": 3228,
  "G4011": 3229,
  "G4012": 3230,
  "G4013": 3231,
  "G4014": 3232,
  "G4015": 3233,
  "G4016": 3234,
  "G4017": 3235,
  "G4018": 3236,
  "G4019": 3237,
  "G402": 3238,
  "G4020": 3239,
  "G4021": 3240,
  "G4022": 3241,
  "G4023": 3242,
  "G4024": 3243,
  "G4025": 3244,
  "G4026": 3245,
  "G4027": 3246,
  "G4028": 3247,
  "G4029": 3248,
  "G403": 3249,
  "G4030": 3250,
  "G4031": 3251,
  "G4032": 3252,
  "G4033": 3253,
  "G4034": 3254,
  "G4035": 3255,
  "G4036": 3256,
  "G4037": 3257,
  "G4038": 3258,
  "G404": 3259,
  "G4040": 3260,
  "G4041": 3261,
  "G4042": 3262,
  "G4043": 3263,
  "G4044": 3264,
  "G4045": 3265,
  "G4046": 3266,
  "G4047": 3267,
  "G4048": 3268,
  "G4049": 3269,
  "G405": 3270,
  "G4050": 3271,
  "G4051": 3272,
  "G4052": 3273,
  "G4053": 3274,
  "G4054": 3275,
  "G4055": 3276,
  "G4056": 3277,
  "G4057": 3278,
  "G4058": 3279,
  "G4059": 3280,
  "G406": 3281,
  "G4060": 3282,
  "G4061": 3283,
  "G4063": 3284,
  "G4064": 3285,
  "G4065": 3286,
  "G4066": 3287,
  "G4067": 3288,
  "G4068": 3289,
  "G4069": 3290,
  "G407": 3291,
  "G4070": 3292,
  "G4071": 3293,
  "G4072": 3294,
  "G4073": 3295,
  "G4074": 3296,
  "G4075": 3297,
  "G4076": 3298,
  "G4077": 3299,
  "G4078": 3300,
  "G4079": 3301,
  "G408": 3302,
  "G4080": 3303,
  "G4082": 3304,
  "G4083": 3305,
  "G4084": 3306,
  "G4085": 3307,
  "G4086": 3308,
  "G4087": 3309,
  "G4088": 3310,
  "G4089": 3311,
  "G409": 3312,
  "G4090": 3313,
  "G4091": 3314,
  "G4092": 3315,
  "G4093": 3316,
  "G4095": 3317,
  "G4097": 3318,
  "G4098": 3319,
  "G4099": 3320,
  "G41": 3321,
  "G410": 3322,
  "G4100": 3323,
  "G4101": 3324,
  "G4102": 3325,
  "G4103": 3326,
  "G4104": 3327,
  "G4105": 3328,
  "G4106": 3329,
  "G4107": 3330,
  "G4108": 3331,
  "G4109": 3332,
  "G411": 3333,
  "G4110": 3334,
  "G4111": 3335,
  "G4112": 3336,
  "G4113": 3337,
  "G4114": 3338,
  "G4115": 3339,
  "G4116": 3340,
  "G4117": 3341,
  "G4118": 3342,
  "G4119": 3343,
  "G412": 3344,
  "G4120": 3345,
  "G4121": 3346,
  "G4122": 3347,
  "G4123": 3348,
  "G4124": 3349,
  "G4125": 3350,
  "G4126": 3351,
  "G4127": 3352,
  "G4128": 3353,
  "G4129": 3354,
  "G413": 3355,
  "G4130": 3356,
  "G4131": 3357,
  "G4132": 3358,
  "G4133": 3359,
  "G4134": 3360,
  "G4135": 3361,
  "G4136": 3362,
  "G4137": 3363,
  "G4138": 3364,
  "G4139": 3365,
  "G414": 3366,
  "G4140": 3367,
  "G4141": 3368,
  "G4143": 3369,
  "G4144": 3370,
  "G4145": 3371,
  "G4146": 3372,
  "G4147": 3373,
  "G4148": 3374,
  "G4149": 3375,
  "G415": 3376,
  "G4150": 3377,
  "G4151": 3378,
  "G4152": 3379,
  "G4153": 3380,
  "G4154": 3381,
  "G4155": 3382,
  "G4156": 3383,
  "G4157": 3384,
  "G4158": 3385,
  "G4159": 3386,
  "G416": 3387,
  "G4160": 3388,
  "G4161": 3389,
  "G4162": 3390,
  "G4163": 3391,
  "G4164": 3392,
  "G4165": 3393,
  "G4166": 3394,
  "G4167": 3395,
  "G4169": 3396,
  "G417": 3397,
  "G4171": 3398,
  "G4172": 3399,
  "G4173": 3400,
  "G4174": 3401,
  "G4175": 3402,
  "G4176": 3403,
  "G4177": 3404,
  "G4178": 3405,
  "G4179": 3406,
  "G418": 3407,
  "G4180": 3408,
  "G4181": 3409,
  "G4182": 3410,
  "G4183": 3411,
  "G4184": 3412,
  "G4185": 3413,
  "G4186": 3414,
  "G4187": 3415,
  "G4188": 3416,
  "G4189": 3417,
  "G419": 3418,
  "G4190": 3419,
  "G4191": 3420,
  "G4192": 3421,
  "G4193": 3422,
  "G4194": 3423,
  "G4195": 3424,
  "G4196": 3425,
  "G4197": 3426,
  "G4198": 3427,
  "G4199": 3428,
  "G42": 3429,
  "G420": 3430,
  "G4200": 3431,
  "G4201": 3432,
  "G4202": 3433,
  "G4203": 3434,
  "G4204": 3435,
  "G4205": 3436,
  "G4206": 3437,
  "G4207": 3438,
  "G4208": 3439,
  "G4209": 3440,
  "G421": 3441,
  "G4210": 3442,
  "G4211": 3443,
  "G4212": 3444,
  "G4213": 3445,
  "G4214": 3446,
  "G4215": 3447,
  "G4216": 3448,
  "G4217": 3449,
  "G4218": 3450,
  "G4219": 3451,
  "G422": 3452,
  "G4220": 3453,
  "G4221": 3454,
  "G4222": 3455,
  "G4223": 3456,
  "G4224": 3457,
  "G4225": 3458,
  "G4226": 3459,
  "G4227": 3460,
  "G4228": 3461,
  "G4229": 3462,
  "G423": 3463,
  "G4230": 3464,
  "G4231": 3465,
  "G4232": 3466,
  "G4233": 3467,
  "G4234": 3468,
  "G4235": 3469,
  "G4236": 3470,
  "G4237": 3471,
  "G4238": 3472,
  "G4239": 3473,
  "G424": 3474,
  "G4240": 3475,
  "G4241": 3476,
  "G4242": 3477,
  "G4243": 3478,
  "G4244": 3479,
  "G4246": 3480,
  "G4247": 3481,
  "G4248": 3482,
  "G4249": 3483,
  "G425": 3484,
  "G4250": 3485,
  "G4251": 3486,
  "G4253": 3487,
  "G4256": 3488,
  "G4257": 3489,
  "G4258": 3490,
  "G4259": 3491,
  "G426": 3492,
  "G4260": 3493,
  "G4261": 3494,
  "G4262": 3495,
  "G4263": 3496,
  "G4264": 3497,
  "G4265": 3498,
  "G4266": 3499,
  "G4267": 3500,
  "G4268": 3501,
  "G4269": 3502,
  "G427": 3503,
  "G4270": 3504,
  "G4271": 3505,
  "G4272": 3506,
  "G4273": 3507,
  "G4274": 3508,
  "G4275": 3509,
  "G4276": 3510,
  "G4277": 3511,
  "G4278": 3512,
  "G4279": 3513,
  "G428": 3514,
  "G4280": 3515,
  "G4281": 3516,
  "G4282": 3517,
  "G4283": 3518,
  "G4284": 3519,
  "G4285": 3520,
  "G4286": 3521,
  "G4287": 3522,
  "G4288": 3523,
  "G4289": 3524,
  "G429": 3525,
  "G4290": 3526,
  "G4291": 3527,
  "G4292": 3528,
  "G4293": 3529,
  "G4295": 3530,
  "G4296": 3531,
  "G4297": 3532,
  "G4298": 3533,
  "G4299": 3534,
  "G43": 3535,
  "G430": 3536,
  "G4300": 3537,
  "G4301": 3538,
  "G4302": 3539,
  "G4303": 3540,
  "G4304": 3541,
  "G4305": 3542,
  "G4306": 3543,
  "G4307": 3544,
  "G4308": 3545,
  "G4309": 3546,
  "G431": 3547,
  "G4310": 3548,
  "G4311": 3549,
  "G4312": 3550,
  "G4313": 3551,
  "G4314": 3552,
  "G4315": 3553,
  "G4316": 3554,
  "G4317": 3555,
  "G4318": 3556,
  "G4319": 3557,
  "G432": 3558,
  "G4320": 3559,
  "G4321": 3560,
  "G4323": 3561,
  "G4324": 3562,
  "G4325": 3563,
  "G4326": 3564,
  "G4327": 3565,
  "G4328": 3566,
  "G4329": 3567,
  "G433": 3568,
  "G4330": 3569,
  "G4331": 3570,
  "G4332": 3571,
  "G4333": 3572,
  "G4334": 3573,
  "G4335": 3574,
  "G4336": 3575,
  "G4337": 3576,
  "G4338": 3577,
  "G4339": 3578,
  "G434": 3579,
  "G4340": 3580,
  "G4341": 3581,
  "G4342": 3582,
  "G4343": 3583,
  "G4344": 3584,
  "G4345": 3585,
  "G4346": 3586,
  "G4347": 3587,
  "G4348": 3588,
  "G4349": 3589,
  "G435": 3590,
  "G4350": 3591,
  "G4351": 3592,
  "G4352": 3593,
  "G4353": 3594,
  "G4354": 3595,
  "G4355": 3596,
  "G4356": 3597,
  "G4357": 3598,
  "G4358": 3599,
  "G4359": 3600,
  "G436": 3601,
  "G4360": 3602,
  "G4361": 3603,
  "G4362": 3604,
  "G4363": 3605,
  "G4364": 3606,
  "G4365": 3607,
  "G4366": 3608,
  "G4367": 3609,
  "G4368": 3610,
  "G4369": 3611,
  "G437": 3612,
  "G4370": 3613,
  "G4371": 3614,
  "G4372": 3615,
  "G4373": 3616,
  "G4374": 3617,
  "G4375": 3618,
  "G4376": 3619,
  "G4377": 3620,
  "G4378": 3621,
  "G4379": 3622,
  "G438": 3623,
  "G4380": 3624,
  "G4381": 3625,
  "G4382": 3626,
  "G4383": 3627,
  "G4384": 3628,
  "G4385": 3629,
  "G4386": 3630,
  "G4387": 3631,
  "G4388": 3632,
  "G4389": 3633,
  "G439": 3634,
  "G4390": 3635,
  "G4391": 3636,
  "G4392": 3637,
  "G4393": 3638,
  "G4394": 3639,
  "G4395": 3640,
  "G4397": 3641,
  "G4398": 3642,
  "G4399": 3643,
  "G44": 3644,
  "G440": 3645,
  "G4400": 3646,
  "G4401": 3647,
  "G4402": 3648,
  "G4403": 3649,
  "G4404": 3650,
  "G4405": 3651,
  "G4406": 3652,
  "G4407": 3653,
  "G4408": 3654,
  "G4409": 3655,
  "G441": 3656,
  "G4410": 3657,
  "G4411": 3658,
  "G4412": 3659,
  "G4413": 3660,
  "G4414": 3661,
  "G4415": 3662,
  "G4416": 3663,
  "G4417": 3664,
  "G4418": 3665,
  "G4419": 3666,
  "G442": 3667,
  "G4420": 3668,
  "G4422": 3669,
  "G4423": 3670,
  "G4424": 3671,
  "G4425": 3672,
  "G4427": 3673,
  "G4428": 3674,
  "G4429": 3675,
  "G443": 3676,
  "G4431": 3677,
  "G4432": 3678,
  "G4433": 3679,
  "G4434": 3680,
  "G4436": 3681,
  "G4437": 3682,
  "G4438": 3683,
  "G4439": 3684,
  "G444": 3685,
  "G4440": 3686,
  "G4441": 3687,
  "G4442": 3688,
  "G4443": 3689,
  "G4445": 3690,
  "G4446": 3691,
  "G4447": 3692,
  "G4449": 3693,
  "G445": 3694,
  "G4450": 3695,
  "G4451": 3696,
  "G4452": 3697,
  "G4453": 3698,
  "G4454": 3699,
  "G4455": 3700,
  "G4457": 3701,
  "G4458": 3702,
  "G4459": 3703,
  "G446": 3704,
  "G4460": 3705,
  "G4461": 3706,
  "G4462": 3707,
  "G4463": 3708,
  "G4464": 3709,
  "G4465": 3710,
  "G4466": 3711,
  "G4467": 3712,
  "G4468": 3713,
  "G4469": 3714,
  "G447": 3715,
  "G4470": 3716,
  "G4471": 3717,
  "G4472": 3718,
  "G4473": 3719,
  "G4474": 3720,
  "G4475": 3721,
  "G4476": 3722,
  "G4477": 3723,
  "G4478": 3724,
  "G4479": 3725,
  "G4481": 3726,
  "G4482": 3727,
  "G4483": 3728,
  "G4484": 3729,
  "G4485": 3730,
  "G4486": 3731,
  "G4487": 3732,
  "G4489": 3733,
  "G449": 3734,
  "G4490": 3735,
  "G4491": 3736,
  "G4492": 3737,
  "G4493": 3738,
  "G4494": 3739,
  "G4495": 3740,
  "G4496": 3741,
  "G4497": 3742,
  "G4498": 3743,
  "G4499": 3744,
  "G45": 3745,
  "G450": 3746,
  "G4500": 3747,
  "G4501": 3748,
  "G4502": 3749,
  "G4503": 3750,
  "G4504": 3751,
  "G4505": 3752,
  "G4506": 3753,
  "G4507": 3754,
  "G4508": 3755,
  "G4509": 3756,
  "G451": 3757,
  "G4510": 3758,
  "G4511": 3759,
  "G4512": 3760,
  "G4513": 3761,
  "G4514": 3762,
  "G4515": 3763,
  "G4516": 3764,
  "G4517": 3765,
  "G4518": 3766,
  "G4519": 3767,
  "G452": 3768,
  "G4520": 3769,
  "G4521": 3770,
  "G4522": 3771,
  "G4523": 3772,
  "G4524": 3773,
  "G4525": 3774,
  "G4526": 3775,
  "G4527": 3776,
  "G4528": 3777,
  "G4529": 3778,
  "G453": 3779,
  "G4530": 3780,
  "G4531": 3781,
  "G4532": 3782,
  "G4533": 3783,
  "G4534": 3784,
  "G4535": 3785,
  "G4536": 3786,
  "G4537": 3787,
  "G4538": 3788,
  "G4539": 3789,
  "G454": 3790,
  "G4540": 3791,
  "G4541": 3792,
  "G4542": 3793,
  "G4543": 3794,
  "G4544": 3795,
  "G4545": 3796,
  "G4546": 3797,
  "G4548": 3798,
  "G4549": 3799,
  "G455": 3800,
  "G4550": 3801,
  "G4551": 3802,
  "G4552": 3803,
  "G4553": 3804,
  "G4555": 3805,
  "G4556": 3806,
  "G4557": 3807,
  "G4558": 3808,
  "G4559": 3809,
  "G4560": 3810,
  "G4561": 3811,
  "G4562": 3812,
  "G4563": 3813,
  "G4564": 3814,
  "G4565": 3815,
  "G4566": 3816,
  "G4567": 3817,
  "G4568": 3818,
  "G4569": 3819,
  "G4570": 3820,
  "G4571": 3821,
  "G4572": 3822,
  "G4573": 3823,
  "G4574": 3824,
  "G4576": 3825,
  "G4577": 3826,
  "G4578": 3827,
  "G4579": 3828,
  "G458": 3829,
  "G4580": 3830,
  "G4582": 3831,
  "G4583": 3832,
  "G4584": 3833,
  "G4585": 3834,
  "G4586": 3835,
  "G4587": 3836,
  "G4588": 3837,
  "G4589": 3838,
  "G4590": 3839,
  "G4591": 3840,
  "G4592": 3841,
  "G4593": 3842,
  "G4594": 3843,
  "G4595": 3844,
  "G4596": 3845,
  "G4597": 3846,
  "G4598": 3847,
  "G4599": 3848,
  "G46": 3849,
  "G460": 3850,
  "G4600": 3851,
  "G4602": 3852,
  "G4603": 3853,
  "G4604": 3854,
  "G4605": 3855,
  "G4606": 3856,
  "G4607": 3857,
  "G4608": 3858,
  "G4609": 3859,
  "G461": 3860,
  "G4610": 3861,
  "G4611": 3862,
  "G4612": 3863,
  "G4613": 3864,
  "G4614": 3865,
  "G4615": 3866,
  "G4616": 3867,
  "G4617": 3868,
  "G4619": 3869,
  "G462": 3870,
  "G4620": 3871,
  "G4621": 3872,
  "G4623": 3873,
  "G4624": 3874,
  "G4625": 3875,
  "G4626": 3876,
  "G4627": 3877,
  "G4628": 3878,
  "G4629": 3879,
  "G463": 3880,
  "G4630": 3881,
  "G4631": 3882,
  "G4632": 3883,
  "G4633": 3884,
  "G4634": 3885,
  "G4635": 3886,
  "G4636": 3887,
  "G4637": 3888,
  "G4638": 3889,
  "G4639": 3890,
  "G464": 3891,
  "G4640": 3892,
  "G4642": 3893,
  "G4643": 3894,
  "G4644": 3895,
  "G4645": 3896,
  "G4646": 3897,
  "G4647": 3898,
  "G4648": 3899,
  "G4649": 3900,
  "G465": 3901,
  "G4650": 3902,
  "G4651": 3903,
  "G4652": 3904,
  "G4653": 3905,
  "G4654": 3906,
  "G4655": 3907,
  "G4657": 3908,
  "G4658": 3909,
  "G4659": 3910,
  "G466": 3911,
  "G4660": 3912,
  "G4661": 3913,
  "G4662": 3914,
  "G4663": 3915,
  "G4664": 3916,
  "G4665": 3917,
  "G4666": 3918,
  "G4667": 3919,
  "G4668": 3920,
  "G4669": 3921,
  "G467": 3922,
  "G4670": 3923,
  "G4671": 3924,
  "G4672": 3925,
  "G4673": 3926,
  "G4674": 3927,
  "G4675": 3928,
  "G4676": 3929,
  "G4677": 3930,
  "G4678": 3931,
  "G4679": 3932,
  "G468": 3933,
  "G4680": 3934,
  "G4681": 3935,
  "G4682": 3936,
  "G4683": 3937,
  "G4684": 3938,
  "G4685": 3939,
  "G4686": 3940,
  "G4687": 3941,
  "G4688": 3942,
  "G4689": 3943,
  "G469": 3944,
  "G4690": 3945,
  "G4691": 3946,
  "G4692": 3947,
  "G4693": 3948,
  "G4694": 3949,
  "G4695": 3950,
  "G4696": 3951,
  "G4697": 3952,
  "G4698": 3953,
  "G4699": 3954,
  "G47": 3955,
  "G470": 3956,
  "G4700": 3957,
  "G4701": 3958,
  "G4702": 3959,
  "G4703": 3960,
  "G4704": 3961,
  "G4705": 3962,
  "G4706": 3963,
  "G4707": 3964,
  "G4708": 3965,
  "G4709": 3966,
  "G471": 3967,
  "G4710": 3968,
  "G4711": 3969,
  "G4712": 3970,
  "G4713": 3971,
  "G4714": 3972,
  "G4715": 3973,
  "G4716": 3974,
  "G4717": 3975,
  "G4718": 3976,
  "G4719": 3977,
  "G472": 3978,
  "G4720": 3979,
  "G4721": 3980,
  "G4722": 3981,
  "G4723": 3982,
  "G4724": 3983,
  "G4725": 3984,
  "G4726": 3985,
  "G4727": 3986,
  "G4728": 3987,
  "G4729": 3988,
  "G473": 3989,
  "G4730": 3990,
  "G4731": 3991,
  "G4732": 3992,
  "G4733": 3993,
  "G4734": 3994,
  "G4735": 3995,
  "G4737": 3996,
  "G4738": 3997,
  "G4739": 3998,
  "G474": 3999,
  "G4740": 4000,
  "G4741": 4001,
  "G4742": 4002,
  "G4743": 4003,
  "G4744": 4004,
  "G4745": 4005,
  "G4746": 4006,
  "G4747": 4007,
  "G4748": 4008,
  "G475": 4009,
  "G4750": 4010,
  "G4751": 4011,
  "G4752": 4012,
  "G4753": 4013,
  "G4754": 4014,
  "G4755": 4015,
  "G4756": 4016,
  "G4757": 4017,
  "G4758": 4018,
  "G4759": 4019,
  "G476": 4020,
  "G4760": 4021,
  "G4761": 4022,
  "G4762": 4023,
  "G4763": 4024,
  "G4764": 4025,
  "G4765": 4026,
  "G4766": 4027,
  "G4767": 4028,
  "G4768": 4029,
  "G4769": 4030,
  "G477": 4031,
  "G4770": 4032,
  "G4771": 4033,
  "G4772": 4034,
  "G4773": 4035,
  "G4774": 4036,
  "G4775": 4037,
  "G4776": 4038,
  "G4777": 4039,
  "G4778": 4040,
  "G4779": 4041,
  "G478": 4042,
  "G4780": 4043,
  "G4781": 4044,
  "G4782": 4045,
  "G4783": 4046,
  "G4784": 4047,
  "G4785": 4048,
  "G4786": 4049,
  "G4787": 4050,
  "G4788": 4051,
  "G4789": 4052,
  "G479": 4053,
  "G4790": 4054,
  "G4791": 4055,
  "G4792": 4056,
  "G4793": 4057,
  "G4794": 4058,
  "G4795": 4059,
  "G4796": 4060,
  "G4797": 4061,
  "G4798": 4062,
  "G48": 4063,
  "G480": 4064,
  "G4800": 4065,
  "G4801": 4066,
  "G4802": 4067,
  "G4803": 4068,
  "G4804": 4069,
  "G4805": 4070,
  "G4806": 4071,
  "G4807": 4072,
  "G4808": 4073,
  "G481": 4074,
  "G4810": 4075,
  "G4811": 4076,
  "G4812": 4077,
  "G4813": 4078,
  "G4814": 4079,
  "G4815": 4080,
  "G4816": 4081,
  "G4817": 4082,
  "G4818": 4083,
  "G4819": 4084,
  "G482": 4085,
  "G4820": 4086,
  "G4821": 4087,
  "G4822": 4088,
  "G4823": 4089,
  "G4824": 4090,
  "G4825": 4091,
  "G4826": 4092,
  "G4827": 4093,
  "G4828": 4094,
  "G4829": 4095,
  "G483": 4096,
  "G4830": 4097,
  "G4831": 4098,
  "G4832": 4099,
  "G4833": 4100,
  "G4834": 4101,
  "G4835": 4102,
  "G4836": 4103,
  "G4837": 4104,
  "G4838": 4105,
  "G4839": 4106,
  "G484": 4107,
  "G4840": 4108,
  "G4841": 4109,
  "G4842": 4110,
  "G4843": 4111,
  "G4844": 4112,
  "G4845": 4113,
  "G4846": 4114,
  "G4847": 4115,
  "G4848": 4116,
  "G4849": 4117,
  "G485": 4118,
  "G4850": 4119,
  "G4851": 4120,
  "G4852": 4121,
  "G4853": 4122,
  "G4854": 4123,
  "G4855": 4124,
  "G4856": 4125,
  "G4857": 4126,
  "G4858": 4127,
  "G4859": 4128,
  "G486": 4129,
  "G4860": 4130,
  "G4861": 4131,
  "G4862": 4132,
  "G4863": 4133,
  "G4864": 4134,
  "G4865": 4135,
  "G4866": 4136,
  "G4867": 4137,
  "G4868": 4138,
  "G4869": 4139,
  "G487": 4140,
  "G4870": 4141,
  "G4871": 4142,
  "G4872": 4143,
  "G4873": 4144,
  "G4874": 4145,
  "G4875": 4146,
  "G4876": 4147,
  "G4877": 4148,
  "G4878": 4149,
  "G4879": 4150,
  "G488": 4151,
  "G4880": 4152,
  "G4881": 4153,
  "G4882": 4154,
  "G4883": 4155,
  "G4884": 4156,
  "G4885": 4157,
  "G4886": 4158,
  "G4887": 4159,
  "G4888": 4160,
  "G4889": 4161,
  "G489": 4162,
  "G4890": 4163,
  "G4891": 4164,
  "G4892": 4165,
  "G4893": 4166,
  "G4894": 4167,
  "G4895": 4168,
  "G4896": 4169,
  "G4897": 4170,
  "G4898": 4171,
  "G4899": 4172,
  "G49": 4173,
  "G490": 4174,
  "G4900": 4175,
  "G4901": 4176,
  "G4902": 4177,
  "G4903": 4178,
  "G4904": 4179,
  "G4905": 4180,
  "G4906": 4181,
  "G4908": 4182,
  "G4909": 4183,
  "G491": 4184,
  "G4910": 4185,
  "G4911": 4186,
  "G4912": 4187,
  "G4913": 4188,
  "G4914": 4189,
  "G4915": 4190,
  "G4916": 4191,
  "G4917": 4192,
  "G4918": 4193,
  "G4919": 4194,
  "G492": 4195,
  "G4920": 4196,
  "G4921": 4197,
  "G4922": 4198,
  "G4923": 4199,
  "G4924": 4200,
  "G4925": 4201,
  "G4926": 4202,
  "G4927": 4203,
  "G4928": 4204,
  "G4929": 4205,
  "G493": 4206,
  "G4930": 4207,
  "G4931": 4208,
  "G4932": 4209,
  "G4933": 4210,
  "G4934": 4211,
  "G4935": 4212,
  "G4936": 4213,
  "G4937": 4214,
  "G4938": 4215,
  "G4939": 4216,
  "G494": 4217,
  "G4940": 4218,
  "G4941": 4219,
  "G4942": 4220,
  "G4943": 4221,
  "G4944": 4222,
  "G4945": 4223,
  "G4946": 4224,
  "G4947": 4225,
  "G4948": 4226,
  "G4949": 4227,
  "G495": 4228,
  "G4950": 4229,
  "G4952": 4230,
  "G4953": 4231,
  "G4954": 4232,
  "G4955": 4233,
  "G4956": 4234,
  "G4957": 4235,
  "G4958": 4236,
  "G4959": 4237,
  "G496": 4238,
  "G4960": 4239,
  "G4961": 4240,
  "G4962": 4241,
  "G4963": 4242,
  "G4964": 4243,
  "G4965": 4244,
  "G4966": 4245,
  "G4967": 4246,
  "G4968": 4247,
  "G4969": 4248,
  "G497": 4249,
  "G4970": 4250,
  "G4971": 4251,
  "G4972": 4252,
  "G4973": 4253,
  "G4974": 4254,
  "G4975": 4255,
  "G4976": 4256,
  "G4977": 4257,
  "G4978": 4258,
  "G498": 4259,
  "G4980": 4260,
  "G4981": 4261,
  "G4982": 4262,
  "G4983": 4263,
  "G4984": 4264,
  "G4985": 4265,
  "G4986": 4266,
  "G4987": 4267,
  "G4988": 4268,
  "G4989": 4269,
  "G4991": 4270,
  "G4992": 4271,
  "G4993": 4272,
  "G4994": 4273,
  "G4995": 4274,
  "G4996": 4275,
  "G4997": 4276,
  "G4998": 4277,
  "G4999": 4278,
  "G5": 4279,
  "G50": 4280,
  "G500": 4281,
  "G5000": 4282,
  "G5001": 4283,
  "G5002": 4284,
  "G5003": 4285,
  "G5005": 4286,
  "G5006": 4287,
  "G5007": 4288,
  "G5008": 4289,
  "G5009": 4290,
  "G501": 4291,
  "G5011": 4292,
  "G5012": 4293,
  "G5013": 4294,
  "G5014": 4295,
  "G5015": 4296,
  "G5016": 4297,
  "G5017": 4298,
  "G5018": 4299,
  "G5019": 4300,
  "G502": 4301,
  "G5020": 4302,
  "G5021": 4303,
  "G5022": 4304,
  "G5023": 4305,
  "G5024": 4306,
  "G5026": 4307,
  "G5027": 4308,
  "G5028": 4309,
  "G5029": 4310,
  "G503": 4311,
  "G5030": 4312,
  "G5031": 4313,
  "G5032": 4314,
  "G5033": 4315,
  "G5034": 4316,
  "G5035": 4317,
  "G5036": 4318,
  "G5037": 4319,
  "G5038": 4320,
  "G5039": 4321,
  "G504": 4322,
  "G5040": 4323,
  "G5041": 4324,
  "G5042": 4325,
  "G5043": 4326,
  "G5044": 4327,
  "G5045": 4328,
  "G5046": 4329,
  "G5047": 4330,
  "G5048": 4331,
  "G505": 4332,
  "G5050": 4333,
  "G5051": 4334,
  "G5053": 4335,
  "G5054": 4336,
  "G5055": 4337,
  "G5056": 4338,
  "G5057": 4339,
  "G5058": 4340,
  "G5059": 4341,
  "G506": 4342,
  "G5060": 4343,
  "G5061": 4344,
  "G5062": 4345,
  "G5063": 4346,
  "G5064": 4347,
  "G5065": 4348,
  "G5066": 4349,
  "G5067": 4350,
  "G5068": 4351,
  "G5069": 4352,
  "G507": 4353,
  "G5070": 4354,
  "G5071": 4355,
  "G5072": 4356,
  "G5073": 4357,
  "G5074": 4358,
  "G5075": 4359,
  "G5076": 4360,
  "G5077": 4361,
  "G5078": 4362,
  "G508": 4363,
  "G5080": 4364,
  "G5081": 4365,
  "G5082": 4366,
  "G5083": 4367,
  "G5084": 4368,
  "G5085": 4369,
  "G5086": 4370,
  "G5087": 4371,
  "G5089": 4372,
  "G509": 4373,
  "G5090": 4374,
  "G5091": 4375,
  "G5092": 4376,
  "G5093": 4377,
  "G5094": 4378,
  "G5095": 4379,
  "G5096": 4380,
  "G5097": 4381,
  "G5098": 4382,
  "G5099": 4383,
  "G51": 4384,
  "G510": 4385,
  "G5100": 4386,
  "G5101": 4387,
  "G5102": 4388,
  "G5103": 4389,
  "G5105": 4390,
  "G5106": 4391,
  "G5107": 4392,
  "G5108": 4393,
  "G5109": 4394,
  "G511": 4395,
  "G5110": 4396,
  "G5111": 4397,
  "G5112": 4398,
  "G5113": 4399,
  "G5114": 4400,
  "G5115": 4401,
  "G5116": 4402,
  "G5117": 4403,
  "G5118": 4404,
  "G5119": 4405,
  "G512": 4406,
  "G5120": 4407,
  "G5121": 4408,
  "G5122": 4409,
  "G5123": 4410,
  "G5124": 4411,
  "G5125": 4412,
  "G5126": 4413,
  "G5127": 4414,
  "G5128": 4415,
  "G5129": 4416,
  "G513": 4417,
  "G5130": 4418,
  "G5131": 4419,
  "G5132": 4420,
  "G5133": 4421,
  "G5134": 4422,
  "G5135": 4423,
  "G5136": 4424,
  "G5137": 4425,
  "G5138": 4426,
  "G5139": 4427,
  "G514": 4428,
  "G5140": 4429,
  "G5141": 4430,
  "G5142": 4431,
  "G5143": 4432,
  "G5144": 4433,
  "G5145": 4434,
  "G5146": 4435,
  "G5147": 4436,
  "G5148": 4437,
  "G5149": 4438,
  "G515": 4439,
  "G5150": 4440,
  "G5151": 4441,
  "G5153": 4442,
  "G5154": 4443,
  "G5155": 4444,
  "G5156": 4445,
  "G5157": 4446,
  "G5158": 4447,
  "G5159": 4448,
  "G516": 4449,
  "G5160": 4450,
  "G5161": 4451,
  "G5162": 4452,
  "G5163": 4453,
  "G5164": 4454,
  "G5165": 4455,
  "G5166": 4456,
  "G5167": 4457,
  "G5168": 4458,
  "G5169": 4459,
  "G517": 4460,
  "G5170": 4461,
  "G5171": 4462,
  "G5172": 4463,
  "G5173": 4464,
  "G5174": 4465,
  "G5175": 4466,
  "G5176": 4467,
  "G5177": 4468,
  "G5178": 4469,
  "G5179": 4470,
  "G518": 4471,
  "G5180": 4472,
  "G5181": 4473,
  "G5182": 4474,
  "G5183": 4475,
  "G5184": 4476,
  "G5185": 4477,
  "G5186": 4478,
  "G5187": 4479,
  "G5188": 4480,
  "G5189": 4481,
  "G519": 4482,
  "G5190": 4483,
  "G5191": 4484,
  "G5192": 4485,
  "G5193": 4486,
  "G5194": 4487,
  "G5195": 4488,
  "G5196": 4489,
  "G5197": 4490,
  "G5198": 4491,
  "G5199": 4492,
  "G52": 4493,
  "G520": 4494,
  "G521": 4495,
  "G522": 4496,
  "G523": 4497,
  "G524": 4498,
  "G525": 4499,
  "G526": 4500,
  "G527": 4501,
  "G528": 4502,
  "G53": 4503,
  "G530": 4504,
  "G531": 4505,
  "G532": 4506,
  "G533": 4507,
  "G534": 4508,
  "G535": 4509,
  "G536": 4510,
  "G537": 4511,
  "G538": 4512,
  "G539": 4513,
  "G54": 4514,
  "G540": 4515,
  "G541": 4516,
  "G542": 4517,
  "G543": 4518,
  "G544": 4519,
  "G545": 4520,
  "G546": 4521,
  "G547": 4522,
  "G548": 4523,
  "G549": 4524,
  "G55": 4525,
  "G550": 4526,
  "G551": 4527,
  "G552": 4528,
  "G553": 4529,
  "G554": 4530,
  "G555": 4531,
  "G556": 4532,
  "G557": 4533,
  "G558": 4534,
  "G559": 4535,
  "G56": 4536,
  "G560": 4537,
  "G561": 4538,
  "G562": 4539,
  "G563": 4540,
  "G564": 4541,
  "G565": 4542,
  "G566": 4543,
  "G567": 4544,
  "G568": 4545,
  "G569": 4546,
  "G57": 4547,
  "G570": 4548,
  "G571": 4549,
  "G572": 4550,
  "G573": 4551,
  "G575": 4552,
  "G576": 4553,
  "G577": 4554,
  "G578": 4555,
  "G579": 4556,
  "G58": 4557,
  "G580": 4558,
  "G581": 4559,
  "G582": 4560,
  "G583": 4561,
  "G584": 4562,
  "G585": 4563,
  "G586": 4564,
  "G587": 4565,
  "G588": 4566,
  "G589": 4567,
  "G59": 4568,
  "G590": 4569,
  "G591": 4570,
  "G592": 4571,
  "G593": 4572,
  "G594": 4573,
  "G595": 4574,
  "G596": 4575,
  "G597": 4576,
  "G598": 4577,
  "G599": 4578,
  "G6": 4579,
  "G60": 4580,
  "G601": 4581,
  "G603": 4582,
  "G604": 4583,
  "G605": 4584,
  "G606": 4585,
  "G607": 4586,
  "G608": 4587,
  "G609": 4588,
  "G61": 4589,
  "G610": 4590,
  "G611": 4591,
  "G612": 4592,
  "G613": 4593,
  "G614": 4594,
  "G615": 4595,
  "G616": 4596,
  "G617": 4597,
  "G618": 4598,
  "G620": 4599,
  "G621": 4600,
  "G622": 4601,
  "G623": 4602,
  "G624": 4603,
  "G625": 4604,
  "G626": 4605,
  "G627": 4606,
  "G628": 4607,
  "G629": 4608,
  "G63": 4609,
  "G630": 4610,
  "G631": 4611,
  "G632": 4612,
  "G634": 4613,
  "G635": 4614,
  "G636": 4615,
  "G637": 4616,
  "G638": 4617,
  "G639": 4618,
  "G64": 4619,
  "G640": 4620,
  "G641": 4621,
  "G642": 4622,
  "G643": 4623,
  "G644": 4624,
  "G645": 4625,
  "G646": 4626,
  "G647": 4627,
  "G648": 4628,
  "G649": 4629,
  "G65": 4630,
  "G650": 4631,
  "G651": 4632,
  "G652": 4633,
  "G653": 4634,
  "G654": 4635,
  "G656": 4636,
  "G657": 4637,
  "G658": 4638,
  "G659": 4639,
  "G66": 4640,
  "G660": 4641,
  "G661": 4642,
  "G662": 4643,
  "G664": 4644,
  "G665": 4645,
  "G666": 4646,
  "G667": 4647,
  "G668": 4648,
  "G669": 4649,
  "G67": 4650,
  "G670": 4651,
  "G671": 4652,
  "G672": 4653,
  "G673": 4654,
  "G674": 4655,
  "G675": 4656,
  "G676": 4657,
  "G677": 4658,
  "G678": 4659,
  "G679": 4660,
  "G68": 4661,
  "G680": 4662,
  "G681": 4663,
  "G682": 4664,
  "G683": 4665,
  "G684": 4666,
  "G685": 4667,
  "G686": 4668,
  "G688": 4669,
  "G689": 4670,
  "G69": 4671,
  "G690": 4672,
  "G691": 4673,
  "G692": 4674,
  "G693": 4675,
  "G694": 4676,
  "G695": 4677,
  "G696": 4678,
  "G697": 4679,
  "G698": 4680,
  "G699": 4681,
  "G7": 4682,
  "G70": 4683,
  "G700": 4684,
  "G701": 4685,
  "G702": 4686,
  "G703": 4687,
  "G704": 4688,
  "G705": 4689,
  "G706": 4690,
  "G707": 4691,
  "G708": 4692,
  "G709": 4693,
  "G71": 4694,
  "G710": 4695,
  "G711": 4696,
  "G712": 4697,
  "G713": 4698,
  "G714": 4699,
  "G715": 4700,
  "G716": 4701,
  "G717": 4702,
  "G718": 4703,
  "G719": 4704,
  "G72": 4705,
  "G720": 4706,
  "G722": 4707,
  "G723": 4708,
  "G724": 4709,
  "G725": 4710,
  "G726": 4711,
  "G727": 4712,
  "G728": 4713,
  "G729": 4714,
  "G73": 4715,
  "G730": 4716,
  "G731": 4717,
  "G732": 4718,
  "G733": 4719,
  "G735": 4720,
  "G736": 4721,
  "G737": 4722,
  "G738": 4723,
  "G739": 4724,
  "G74": 4725,
  "G740": 4726,
  "G741": 4727,
  "G742": 4728,
  "G743": 4729,
  "G744": 4730,
  "G745": 4731,
  "G746": 4732,
  "G747": 4733,
  "G748": 4734,
  "G749": 4735,
  "G75": 4736,
  "G750": 4737,
  "G751": 4738,
  "G752": 4739,
  "G753": 4740,
  "G754": 4741,
  "G755": 4742,
  "G756": 4743,
  "G757": 4744,
  "G758": 4745,
  "G759": 4746,
  "G76": 4747,
  "G760": 4748,
  "G761": 4749,
  "G762": 4750,
  "G763": 4751,
  "G764": 4752,
  "G765": 4753,
  "G766": 4754,
  "G767": 4755,
  "G768": 4756,
  "G769": 4757,
  "G77": 4758,
  "G770": 4759,
  "G771": 4760,
  "G772": 4761,
  "G774": 4762,
  "G775": 4763,
  "G776": 4764,
  "G777": 4765,
  "G778": 4766,
  "G779": 4767,
  "G78": 4768,
  "G780": 4769,
  "G782": 4770,
  "G783": 4771,
  "G784": 4772,
  "G785": 4773,
  "G786": 4774,
  "G787": 4775,
  "G788": 4776,
  "G789": 4777,
  "G79": 4778,
  "G790": 4779,
  "G791": 4780,
  "G792": 4781,
  "G793": 4782,
  "G794": 4783,
  "G795": 4784,
  "G796": 4785,
  "G797": 4786,
  "G798": 4787,
  "G799": 4788,
  "G8": 4789,
  "G80": 4790,
  "G800": 4791,
  "G802": 4792,
  "G803": 4793,
  "G804": 4794,
  "G805": 4795,
  "G806": 4796,
  "G807": 4797,
  "G808": 4798,
  "G809": 4799,
  "G81": 4800,
  "G810": 4801,
  "G811": 4802,
  "G812": 4803,
  "G813": 4804,
  "G814": 4805,
  "G815": 4806,
  "G816": 4807,
  "G817": 4808,
  "G818": 4809,
  "G819": 4810,
  "G82": 4811,
  "G820": 4812,
  "G821": 4813,
  "G822": 4814,
  "G823": 4815,
  "G824": 4816,
  "G825": 4817,
  "G826": 4818,
  "G827": 4819,
  "G828": 4820,
  "G829": 4821,
  "G83": 4822,
  "G830": 4823,
  "G831": 4824,
  "G832": 4825,
  "G833": 4826,
  "G834": 4827,
  "G836": 4828,
  "G837": 4829,
  "G838": 4830,
  "G839": 4831,
  "G84": 4832,
  "G840": 4833,
  "G841": 4834,
  "G842": 4835,
  "G843": 4836,
  "G844": 4837,
  "G845": 4838,
  "G846": 4839,
  "G847": 4840,
  "G848": 4841,
  "G849": 4842,
  "G85": 4843,
  "G850": 4844,
  "G851": 4845,
  "G852": 4846,
  "G853": 4847,
  "G854": 4848,
  "G855": 4849,
  "G856": 4850,
  "G857": 4851,
  "G858": 4852,
  "G859": 4853,
  "G86": 4854,
  "G860": 4855,
  "G861": 4856,
  "G862": 4857,
  "G863": 4858,
  "G864": 4859,
  "G865": 4860,
  "G866": 4861,
  "G867": 4862,
  "G868": 4863,
  "G869": 4864,
  "G87": 4865,
  "G870": 4866,
  "G871": 4867,
  "G872": 4868,
  "G873": 4869,
  "G874": 4870,
  "G875": 4871,
  "G876": 4872,
  "G878": 4873,
  "G879": 4874,
  "G88": 4875,
  "G880": 4876,
  "G881": 4877,
  "G882": 4878,
  "G883": 4879,
  "G884": 4880,
  "G885": 4881,
  "G886": 4882,
  "G887": 4883,
  "G888": 4884,
  "G889": 4885,
  "G89": 4886,
  "G890": 4887,
  "G891": 4888,
  "G892": 4889,
  "G893": 4890,
  "G894": 4891,
  "G895": 4892,
  "G896": 4893,
  "G897": 4894,
  "G898": 4895,
  "G899": 4896,
  "G9": 4897,
  "G90": 4898,
  "G900": 4899,
  "G901": 4900,
  "G902": 4901,
  "G903": 4902,
  "G904": 4903,
  "G905": 4904,
  "G906": 4905,
  "G907": 4906,
  "G908": 4907,
  "G909": 4908,
  "G91": 4909,
  "G910": 4910,
  "G911": 4911,
  "G912": 4912,
  "G913": 4913,
  "G914": 4914,
  "G915": 4915,
  "G916": 4916,
  "G917": 4917,
  "G918": 4918,
  "G919": 4919,
  "G92": 4920,
  "G920": 4921,
  "G921": 4922,
  "G922": 4923,
  "G923": 4924,
  "G924": 4925,
  "G925": 4926,
  "G926": 4927,
  "G927": 4928,
  "G928": 4929,
  "G929": 4930,
  "G93": 4931,
  "G930": 4932,
  "G931": 4933,
  "G932": 4934,
  "G933": 4935,
  "G934": 4936,
  "G935": 4937,
  "G936": 4938,
  "G937": 4939,
  "G938": 4940,
  "G939": 4941,
  "G94": 4942,
  "G940": 4943,
  "G941": 4944,
  "G942": 4945,
  "G944": 4946,
  "G945": 4947,
  "G946": 4948,
  "G948": 4949,
  "G949": 4950,
  "G95": 4951,
  "G950": 4952,
  "G951": 4953,
  "G952": 4954,
  "G953": 4955,
  "G954": 4956,
  "G955": 4957,
  "G956": 4958,
  "G957": 4959,
  "G958": 4960,
  "G959": 4961,
  "G96": 4962,
  "G960": 4963,
  "G961": 4964,
  "G963": 4965,
  "G964": 4966,
  "G965": 4967,
  "G966": 4968,
  "G967": 4969,
  "G968": 4970,
  "G969": 4971,
  "G97": 4972,
  "G970": 4973,
  "G971": 4974,
  "G972": 4975,
  "G973": 4976,
  "G974": 4977,
  "G975": 4978,
  "G976": 4979,
  "G977": 4980,
  "G978": 4981,
  "G979": 4982,
  "G98": 4983,
  "G980": 4984,
  "G981": 4985,
  "G982": 4986,
  "G983": 4987,
  "G984": 4988,
  "G985": 4989,
  "G986": 4990,
  "G987": 4991,
  "G988": 4992,
  "G989": 4993,
  "G99": 4994,
  "G990": 4995,
  "G991": 4996,
  "G992": 4997,
  "G993": 4998,
  "G994": 4999,
  "G995": 5000,
  "G996": 5001,
  "G997": 5002,
  "G998": 5003,
  "G999": 5004
}